int32_t bias[239] = {
	0x0000348c,
	0x001d764b,
	0xfff31697,
	0x0007344f,
	0xfff613e0,
	0x0014cf8d,
	0xfff98cf8,
	0x00000dc3,
	0x00095c0a,
	0x0015da6e,
	0x001e7501,
	0xffe458d4,
	0x0007ed37,
	0x000008e4,
	0xffec51c1,
	0x000d20bf,
	0xffdfd9fd,
	0xffef63e7,
	0xffffbd99,
	0x000e5035,
	0x000ca317,
	0x001b2ce9,
	0xffea7e80,
	0xfff44497,
	0x0004dcb4,
	0x000f4dc8,
	0x001b8e98,
	0xfffdc9bf,
	0xfff05fe4,
	0x0009bcd4,
	0xfff9b9a3,
	0x0000111f,
	0xffffba50,
	0x00002cd2,
	0x000aa5b0,
	0x000e374f,
	0x000e876b,
	0x00027e74,
	0x0011eaea,
	0xfffff836,
	0x0011bdc4,
	0x00050c25,
	0x00003243,
	0x0014066a,
	0x000cb414,
	0xffffe140,
	0x0013c622,
	0x001535b9,
	0x00006176,
	0x00115dea,
	0xffff5b6c,
	0x001049f0,
	0x0012446b,
	0x00000a5e,
	0x00024247,
	0x0013789a,
	0x000c5510,
	0x001085ca,
	0x00000fcb,
	0x001ca1e6,
	0x00109fe8,
	0x001461b2,
	0x0011c317,
	0xfffffefe,
	0xfffffd90,
	0xfff1f69e,
	0xfff8ca8c,
	0xfffba3ba,
	0xffff21ee,
	0x002add47,
	0x0002ebdf,
	0xffffff64,
	0xfffd7eb8,
	0x00339fff,
	0xffefed0f,
	0xffe29dd6,
	0xffffadc7,
	0x00000198,
	0xffedf06c,
	0x0001d90b,
	0xffee3a80,
	0xfff433f5,
	0xfffff74c,
	0xfff359c5,
	0xfff2bcea,
	0xfff550bf,
	0x0018ef3b,
	0xfff067d1,
	0x0000929e,
	0xfffdea44,
	0xfff4ad10,
	0xffee08be,
	0xffed937d,
	0x0005ad5d,
	0xfff92a95,
	0xfffffff2,
	0x00003d08,
	0x000dd86e,
	0xfffa335b,
	0x00033e06,
	0xfffa46bc,
	0x00098859,
	0xfffba2e0,
	0x00000044,
	0x0005cd67,
	0x000b57b2,
	0x000e602d,
	0xfff08e7b,
	0x0002a77d,
	0x00001241,
	0xfff683c4,
	0x0005fc90,
	0xfff0bcdc,
	0xfff87eef,
	0xffffb14d,
	0x00064b70,
	0x0005df1d,
	0x000c9ead,
	0xfff6daac,
	0xfffae7d6,
	0x0002fcd0,
	0x000a3134,
	0x000cd81b,
	0xfff16064,
	0xfff914e4,
	0x0006b5b9,
	0xffff6f45,
	0xffffefcb,
	0xffffba50,
	0x00002cd2,
	0x000aa5b0,
	0x000e374f,
	0x000e876b,
	0x00027e74,
	0x0011eaea,
	0xfffff836,
	0x0011bdc4,
	0x00050c25,
	0x00003243,
	0x0014066a,
	0x000cb414,
	0xffffe140,
	0x0013c622,
	0x001535b9,
	0x00006176,
	0x00115dea,
	0xffff5b6c,
	0x001049f0,
	0x0012446b,
	0x00000a5e,
	0x00024247,
	0x0013789a,
	0x000c5510,
	0x001085ca,
	0x00000fcb,
	0x001ca1e6,
	0x00109fe8,
	0x001461b2,
	0x0011c317,
	0xfffffefe,
	0xfffffd90,
	0xfff1f69e,
	0xfff8ca8c,
	0xfffba3ba,
	0xffff21ee,
	0x002a728c,
	0x0002ebdf,
	0xffffff64,
	0xfffd7eb8,
	0x002c0a3d,
	0xffefed0f,
	0xffe29dd6,
	0xffffadc7,
	0x00000198,
	0xffedf06c,
	0x0001d90a,
	0xffee3a80,
	0xfff433f5,
	0xfffff74c,
	0xfff359c5,
	0xfff2bcea,
	0xfff550bf,
	0x0018d146,
	0xfff067d1,
	0x0000929e,
	0xfffdea44,
	0xfff4ad10,
	0xffee08be,
	0xffed937d,
	0x0005ad59,
	0xfff92a95,
	0xfffffff2,
	0xffdbe0a6,
	0x000c6205,
	0xffeb49f3,
	0x0042ff38,
	0xffef8707,
	0x007255ee,
	0xffc979aa,
	0x00395bee,
	0x004c1fbc,
	0x0026d7de,
	0xfff93fbf,
	0x004aeaf6,
	0x00082abf,
	0x00361d7b,
	0xffc9e2c3,
	0x000094f4,
	0x0017bdb8,
	0xffff9a08,
	0x0005b0d0,
	0xffe610ed,
	0xff89a3d4,
	0xfff7a5e1,
	0x00001b02,
	0x0011ddf5,
	0xff66bef7,
	0x001826ea,
	0xffee3f5f,
	0x0009af91,
	0xfffff2c0,
	0xffe22ed6,
	0x000c7f13,
	0xffe43ba0,
	0xffed4378,
	0xffff35b4,
	0x0012d563,
	0x0013fc7a,
	0x0014d60e,
	0x002f88fe,
	0xffe901ad,
	0xfffed155,
	0x0004d3a0,
	0x00157e5b,
	0xffcdb187,
	0xffe31256,
	0x00104f7d,
	0xffe9542e,
	0x0000092c,
};
