int32_t weight[5516] = {
	0xffffcab4,
	0x00003735,
	0x00004552,
	0x000019fe,
	0xffffe105,
	0x00002ed5,
	0xffffc719,
	0x00003190,
	0x00002c96,
	0x00003685,
	0xffffaa58,
	0x000026bf,
	0x0000177b,
	0x00009df3,
	0x000059a6,
	0x000037be,
	0xfffff68b,
	0x000034c5,
	0x00001318,
	0xffed186f,
	0x00060433,
	0xfff9c3ef,
	0x001d28b2,
	0xffff7419,
	0x002ba878,
	0xffe8bf68,
	0x0015ee0a,
	0x001aca1b,
	0x000c6713,
	0xfffe107e,
	0x0019e201,
	0x00023564,
	0x0009af67,
	0x00164a92,
	0x0004b5fa,
	0x0001f9d8,
	0x001d7109,
	0xfffe4fda,
	0xfff872d1,
	0x00051867,
	0x0007ec3e,
	0xfff96d26,
	0xfff8ce8d,
	0xffe7d33e,
	0x0015f27b,
	0xfff5f63f,
	0xfff1fd44,
	0xfff041d5,
	0x0004f9c1,
	0xfff59506,
	0xfff9819f,
	0xffe99edc,
	0x0003baef,
	0xfff4b2f8,
	0x000252c5,
	0xfff303c9,
	0x000094ee,
	0x000fc3bf,
	0xffffaf4d,
	0xffefbfba,
	0x00057872,
	0xfff7e7c0,
	0x00073831,
	0xfff399ea,
	0x00003879,
	0x00066fa9,
	0x000415df,
	0xfffe3c43,
	0x0002bac6,
	0x00042a31,
	0x00003199,
	0xffff9131,
	0x000bd84d,
	0xffffa42c,
	0x00073ac1,
	0xfffe6b13,
	0xffca9865,
	0xfff734db,
	0xfff3f701,
	0x0022653e,
	0xffdd4545,
	0xfff1b7e2,
	0x003f6684,
	0xfff030f3,
	0x0005eb11,
	0x0005a09d,
	0xfffefb4f,
	0x0007db92,
	0x0001399c,
	0xffc5c944,
	0xffc24d66,
	0x00202a1f,
	0x000e2575,
	0x0000e1e5,
	0x00019cae,
	0xffec501e,
	0x000a2ce2,
	0xfff9c4d4,
	0x00225df6,
	0x00027fe6,
	0x0028a39d,
	0xfff888db,
	0x00121cf4,
	0x0015f792,
	0x0005b2c1,
	0x0000b7e1,
	0x0019466e,
	0xffff2757,
	0x000feea0,
	0x000ba0c0,
	0x0005672c,
	0x0000358f,
	0x0014b685,
	0xffffec20,
	0xffde0bd0,
	0xfffc0b22,
	0xfff78d5d,
	0x00154439,
	0x00139153,
	0x000d6ada,
	0x0031139a,
	0xfff9216e,
	0xfffb3504,
	0x00085d91,
	0xfffd2f77,
	0x0001c031,
	0x00039b65,
	0x00075132,
	0x0019602f,
	0xfff784e5,
	0xfff8b395,
	0xfff70e69,
	0x00062aba,
	0xfffff58b,
	0xffffe982,
	0x000011dd,
	0x00001de5,
	0xffffd714,
	0x000009f9,
	0x00000025,
	0x000009b5,
	0x000016f4,
	0x000010ca,
	0xffffffe6,
	0x00000e48,
	0xfffff0ce,
	0xffffeb83,
	0x000013df,
	0x00002263,
	0x00002653,
	0x00000dba,
	0xffffec54,
	0xffeb42ea,
	0xffecad47,
	0x001476e0,
	0xfff77783,
	0xfff74d9c,
	0xfff828fb,
	0xfff1347e,
	0x00056738,
	0x00076545,
	0x000db907,
	0xfffe928b,
	0xffff9075,
	0x0003177e,
	0xfff8d5ec,
	0x0004e01a,
	0x000e6bda,
	0x00048a0d,
	0x0009ba6d,
	0xfffceb42,
	0xffe44243,
	0x000acbe7,
	0xfff99aab,
	0x0027df10,
	0xffff2555,
	0x002801db,
	0xfffbc906,
	0x00141e69,
	0x00196d4d,
	0x000644b3,
	0x0000db8d,
	0x001d03ff,
	0xfffe404b,
	0x000a12de,
	0x000977ae,
	0x0006a0b5,
	0x0002160c,
	0x001621b8,
	0x0000f3ad,
	0xffecde0f,
	0x0005f11c,
	0xfff9bad3,
	0x001d8fed,
	0xffff2d55,
	0x002d02a3,
	0xffe73418,
	0x0016a936,
	0x001ba296,
	0x000d1de9,
	0xfffdc0e6,
	0x001aa223,
	0x0002a0ad,
	0x000aa7bd,
	0x00161e2c,
	0x0005458b,
	0x0001f278,
	0x001e6f93,
	0xfffe39dc,
	0x000caf50,
	0x000182d0,
	0x00068bbc,
	0xfff6d850,
	0xffff621d,
	0xffe04480,
	0x001ede83,
	0xfff1bfd4,
	0xfff1f594,
	0xffed6360,
	0x00093615,
	0xfff3876c,
	0xfff0aed0,
	0xffea8170,
	0x0009af1d,
	0xfff7686a,
	0x000151bb,
	0xffe45149,
	0x0002a581,
	0xfff6f2dc,
	0xfff3b493,
	0x0006bd21,
	0x000774da,
	0xfff984b6,
	0x000626a4,
	0xfff70b16,
	0x000694f7,
	0x000946cb,
	0x000ac0d4,
	0xffffe2b7,
	0x0004c8ac,
	0x0000a2ec,
	0xffdc372e,
	0x000ecf37,
	0x0008e400,
	0x0005c935,
	0x0007e51f,
	0xfffdd39f,
	0xffffe6d2,
	0xffffb6ba,
	0xffffdd76,
	0x0000264d,
	0xffff548f,
	0xfffff889,
	0x00002750,
	0xffffe50d,
	0x00000fc8,
	0x00001c4b,
	0x00002da7,
	0x00000782,
	0xffffe22f,
	0x00002347,
	0xffffddff,
	0x0000871c,
	0xffff6579,
	0x0000092f,
	0x00007994,
	0x000cc344,
	0xfffdb446,
	0xffd9da79,
	0x001f97ff,
	0xffdf337b,
	0xfff6452c,
	0x003c203c,
	0xffe70b58,
	0xfff64e2e,
	0xfff77d7e,
	0x00033532,
	0xfff4d754,
	0xfffb063c,
	0xff8b1a3b,
	0xfffb57d2,
	0x001a3e05,
	0x00053a37,
	0xffed1ef7,
	0x00028e06,
	0x001874d9,
	0x00085d6e,
	0x0004d662,
	0xffeb17e5,
	0xffdfc0d2,
	0xfff23ad0,
	0xffd0e150,
	0x00079580,
	0x0008a7af,
	0xfff4d5de,
	0x0002eec8,
	0xffffa6ce,
	0xfffc6f53,
	0xfff3127d,
	0xffdb3224,
	0x000b8d97,
	0x000be828,
	0x0007e0b5,
	0xfff820ea,
	0x00132218,
	0xfff9a893,
	0x00066277,
	0xffe12e24,
	0x0000b8a6,
	0xffd13e34,
	0x001b0d25,
	0xffe80263,
	0xffe31a7c,
	0xfff282b8,
	0x00024b30,
	0xffe4503e,
	0xfffd4b70,
	0xfff3f519,
	0xffe68b0b,
	0xfffb56d1,
	0xfffeb4b4,
	0xffdfe2f6,
	0x00012f2c,
	0xfff9cdf7,
	0x0013b054,
	0x000b355f,
	0xffe36f79,
	0x000f6d8f,
	0xffee7e51,
	0x00164178,
	0xfff651f9,
	0xffebade1,
	0xffec9446,
	0x00012f46,
	0xfff556a6,
	0xfffc7ae8,
	0x002216b1,
	0xffd0c2dd,
	0xfff1bd0a,
	0xfffbcb89,
	0xfff0c75a,
	0x00033cd1,
	0x00004914,
	0xffffefbc,
	0x00001575,
	0xffffbcf1,
	0x0000d327,
	0xffffd69d,
	0x00001a4b,
	0xffffef2a,
	0xffffc9c8,
	0xffffbb1b,
	0x00004271,
	0xffffcdcc,
	0xfffff506,
	0xffff51c2,
	0xffff9537,
	0xffff342e,
	0x0000b81f,
	0xffffbd30,
	0xffff621c,
	0xfffab5a0,
	0xfff64e01,
	0x000e4c11,
	0xfffe988a,
	0x00065a08,
	0x00100368,
	0xffddef13,
	0x00114e66,
	0x000e75ea,
	0x00111e82,
	0xfffb7453,
	0x0009677c,
	0x0003eb38,
	0x000eb747,
	0x0018e849,
	0xfff9718f,
	0x0000d434,
	0x000db8d0,
	0xffff3c06,
	0xfff7bcc7,
	0xfff1e1df,
	0x00089960,
	0x0003159f,
	0x000270d8,
	0x0006193b,
	0xffe96b18,
	0x00093099,
	0x000bf321,
	0x0010d47d,
	0xfffabba3,
	0x0006a9c2,
	0x0004c296,
	0x000c143f,
	0x001ba574,
	0xfffa13eb,
	0xfffec53a,
	0x000bcb39,
	0xffffb09c,
	0xffee6c02,
	0x000576a6,
	0xfff9e6b4,
	0x001ba86b,
	0xffffa0e5,
	0x00285496,
	0xffeb47c1,
	0x00142e1c,
	0x0018dfce,
	0x000b5b46,
	0xfffe7e36,
	0x0017e7d9,
	0x0001a0b7,
	0x00072fd7,
	0x001626fc,
	0x00041e1c,
	0x0001bdf5,
	0x001b2804,
	0xfffea97c,
	0x0019ebcc,
	0xfff580fe,
	0x0006e6b1,
	0xffdd1aba,
	0x000059fb,
	0xffd881a0,
	0x00045b32,
	0xffecdf88,
	0xffe87160,
	0xfffa7ff4,
	0xffff5152,
	0xffe516b4,
	0x00017020,
	0xfff787a2,
	0xfff20dfe,
	0xfffd20c6,
	0xfffe45c2,
	0xffea904b,
	0xffff235f,
	0xfffe5f0a,
	0x000ed9fe,
	0xfff9d4d2,
	0xfff854eb,
	0xfffe08c1,
	0xfff56593,
	0x001e59b1,
	0xfff42c00,
	0xfff2363e,
	0xffee7e8d,
	0x0004f0de,
	0xfff93c3b,
	0xfffb3cc9,
	0xfff5bc2d,
	0xffd947b4,
	0x00087a76,
	0x000073fc,
	0xfff55887,
	0x00008bf2,
	0x0012d1f1,
	0x000425bc,
	0xfff3935f,
	0x0001c01b,
	0xfffe142c,
	0x0003be05,
	0xfff280fe,
	0x0001655b,
	0x0004d1eb,
	0xffffc3e7,
	0xffffadf2,
	0x0001a6a7,
	0x0001bdb0,
	0x0007948e,
	0xfffb0141,
	0x0008483a,
	0xfffe18db,
	0x0004e2e9,
	0xfffecd59,
	0x0030c106,
	0x001a6deb,
	0xffdc11e7,
	0x000eda79,
	0xfff4fb6a,
	0x001ddb0d,
	0xffdd23ff,
	0x000a39ff,
	0x001041e8,
	0xfff84e3b,
	0x000067fb,
	0x000aa00f,
	0xfffd3b9c,
	0xffe55b22,
	0x0014e760,
	0x0001a853,
	0xfffffa14,
	0x00107cce,
	0xfffa79b7,
	0xffee3b09,
	0x0005a0e4,
	0xfff9fca1,
	0x001ba9fb,
	0xffff7425,
	0x0028b7e0,
	0xffeabf25,
	0x001470f1,
	0x00191170,
	0x000b731e,
	0xfffe6738,
	0x00182721,
	0x0001bd36,
	0x0007a791,
	0x0015df59,
	0x00041d11,
	0x0001e0a4,
	0x001b8946,
	0xfffe8a7d,
	0xffd11000,
	0x00038eb6,
	0x00255a09,
	0xffe363a7,
	0x000dacfe,
	0x00023338,
	0x0015569a,
	0x0010924e,
	0xfff89f5e,
	0x00058607,
	0xfffed452,
	0xfffb155a,
	0x0000b2a6,
	0x00323f16,
	0xff591832,
	0x00364a24,
	0x0001dddc,
	0xfffea2d7,
	0x00078730,
	0x0003db56,
	0xfffd16f5,
	0xffe70802,
	0x001410a4,
	0xffe2ff5d,
	0xfff6e0c7,
	0x003564a2,
	0xffe7031b,
	0xfff23fbd,
	0xfff59f1b,
	0x00064ba2,
	0xfff7d834,
	0xfffb4300,
	0xffab9303,
	0xffe5890a,
	0x0022103e,
	0x00046da8,
	0xffef9c0f,
	0xfffdf0c4,
	0x00312aa2,
	0xfff73cc1,
	0x00010172,
	0xfff6215d,
	0xfff41a27,
	0xfff0e4e2,
	0xffbe762a,
	0x000a4bab,
	0x00085640,
	0x0005047e,
	0x00014095,
	0xfff90304,
	0xfffde8e0,
	0xffeb0dd6,
	0x00019aa5,
	0x000f3783,
	0x0001ff6e,
	0x0007846b,
	0xfff64568,
	0x0009c713,
	0x000ea1aa,
	0xfffd77ad,
	0xfff58fd2,
	0x0009acb0,
	0xfffef6cf,
	0xfffe5841,
	0x0002d972,
	0xfffe44b8,
	0xfff66a37,
	0x0002a386,
	0x000095a1,
	0xfffd3052,
	0x001b11f3,
	0xffd79ad2,
	0xffff4a91,
	0xfffee167,
	0xfff9605b,
	0x00019155,
	0x00000398,
	0xfffffa53,
	0x000003d7,
	0x000026a7,
	0x00000c94,
	0x00001686,
	0xffffe7fb,
	0x00000d22,
	0x00002739,
	0x000004b7,
	0xffffed08,
	0x00001a32,
	0x00000a67,
	0xffffe5b6,
	0x00002c47,
	0x00001ba1,
	0x000007fe,
	0x00001135,
	0xfffff7f5,
	0x00003887,
	0xffffecab,
	0xfffffebf,
	0xffffb364,
	0xffffff43,
	0xffffaa2b,
	0x000035ae,
	0xffffc1c5,
	0xffffbb37,
	0xffffe990,
	0xfffffe99,
	0xffffba85,
	0x00000177,
	0xffffcf45,
	0xffffc36b,
	0xfffffd69,
	0x0000016e,
	0xffffba52,
	0xffffffae,
	0xffff9e66,
	0xfffff7c6,
	0x00002f11,
	0x00003209,
	0xffffef13,
	0x00003040,
	0x00004ed3,
	0xffffe48d,
	0xffffffe7,
	0xffffddf3,
	0x00004bbc,
	0xfffffe8d,
	0xffffc386,
	0xffff68c7,
	0xffffe07a,
	0x00000468,
	0xffffd00e,
	0x00002cbc,
	0x00003288,
	0xfff86b14,
	0x000407a9,
	0xfffd432b,
	0x000e3e7e,
	0xfffd8b6c,
	0x0010aa9e,
	0xfff8ba4a,
	0x0008e6f0,
	0x000b213e,
	0x00027c2d,
	0x00005508,
	0x000b67e1,
	0xffff7d6b,
	0x00046e38,
	0x000b609d,
	0x00004d79,
	0x0001e3f3,
	0x000aa38f,
	0xffff2561,
	0xfff60996,
	0x00067b30,
	0xfff9b4f2,
	0x0013e49a,
	0xfffe507f,
	0x0019011d,
	0xfff90f7e,
	0x000adc05,
	0x000dce0e,
	0x00034c46,
	0x00003080,
	0x000f33ae,
	0xffff9831,
	0x00086bfb,
	0x000d3c67,
	0x000102db,
	0x0001c70e,
	0x000e3664,
	0xffff05ea,
	0xffef282a,
	0x0005c611,
	0xfffd0e72,
	0x0013a48d,
	0x00016add,
	0x00182d8c,
	0xfffc0f52,
	0x000a6fea,
	0x000d3154,
	0x000527d1,
	0xffffa8b0,
	0x000eb9ca,
	0x00007ee1,
	0x00064484,
	0x000ac40d,
	0x0002985f,
	0x00016fa0,
	0x000e86bb,
	0xffff18ab,
	0xfffdd90b,
	0x00010266,
	0xffff194f,
	0x0003ac37,
	0x000036a3,
	0x0004b6ab,
	0xfffea9c2,
	0x00024501,
	0x0002afd9,
	0x00010bf6,
	0x0000033e,
	0x0002f02b,
	0x00000955,
	0x0001e5b5,
	0x00014258,
	0x0000d712,
	0x000063c5,
	0x000280b9,
	0xffff7792,
	0xfff28166,
	0x0006d0cd,
	0xfffcad25,
	0x00162b34,
	0x0001300b,
	0x001c16fb,
	0xfff3fabb,
	0x000ef53b,
	0x001124f5,
	0x00054ade,
	0xffff953f,
	0x0011f9fa,
	0x0000923f,
	0x000b2338,
	0x000cd639,
	0x00029d3f,
	0x000195f3,
	0x0011ec45,
	0xffff1434,
	0x0000069f,
	0xfffffe2e,
	0x00000024,
	0xfffff7f7,
	0x00000064,
	0xfffff853,
	0x00000520,
	0xfffff942,
	0xfffff870,
	0xfffffdf4,
	0xffffff9d,
	0xfffff848,
	0xfffffffb,
	0xfffffb4f,
	0xfffff963,
	0x0000009d,
	0x0000005b,
	0xfffff837,
	0xffffffa6,
	0xfff08e39,
	0x0007f868,
	0xfffbb345,
	0x0016197e,
	0x0001d4dc,
	0x001e4df5,
	0xfff68548,
	0x000e46e6,
	0x00107e8d,
	0x00051d97,
	0x00000c51,
	0x00123378,
	0xffff879e,
	0x000d27b8,
	0x001045a9,
	0xffffea72,
	0x0001bbe1,
	0x0011bf75,
	0xffff6aa1,
	0xfffb1b04,
	0x0001954b,
	0xffff1822,
	0x00073826,
	0xffffd263,
	0x0008f5c1,
	0xfffc975e,
	0x00050c58,
	0x00062e29,
	0x00026fa5,
	0xffffc6bf,
	0x00065704,
	0x00002430,
	0x00022b00,
	0x00026e12,
	0x0001988e,
	0x0000ebc9,
	0x00051171,
	0xffff6c68,
	0xffff9b0a,
	0xfffff8b2,
	0x0000287e,
	0x00003456,
	0xffffeab7,
	0x000036d0,
	0x00004783,
	0xffffe70a,
	0x00000238,
	0xffffdf5f,
	0x000047c0,
	0x00000238,
	0xffffc2b0,
	0xffff743c,
	0xffffd942,
	0x00000778,
	0xffffdbc4,
	0x0000322d,
	0x00002ee7,
	0xfffb5690,
	0x0004860b,
	0xfff9b29d,
	0x0015dd4a,
	0xffff82e6,
	0x0023023f,
	0xffe75513,
	0x0013f44d,
	0x00189ec8,
	0x000a9152,
	0xfffe654b,
	0x0016c5b0,
	0x00017cc3,
	0x000e3c87,
	0x001917c6,
	0x00006e37,
	0x0000fba3,
	0x0014031d,
	0x0000dbab,
	0xfff548c8,
	0x00062974,
	0xfffc98e7,
	0x000f4083,
	0x00018c7c,
	0x0015cd16,
	0xfff94f7e,
	0x000a4372,
	0x000b9238,
	0x000336c6,
	0x00006a26,
	0x000cddc8,
	0xfffedbc5,
	0x00087c62,
	0x000ad450,
	0x00000955,
	0x00013af7,
	0x000cb577,
	0xffffd242,
	0x00001cd0,
	0xffffef79,
	0x00000a0e,
	0xffffd910,
	0xfffffacd,
	0xffffd22c,
	0x00001575,
	0xffffe614,
	0xffffe38a,
	0xffffefaa,
	0xffffffca,
	0xffffe121,
	0x000000d9,
	0xffffe7cb,
	0xffffe525,
	0xfffffbf3,
	0x0000017c,
	0xffffe142,
	0xffffff8a,
	0xffefc486,
	0x0007b944,
	0xfff4ceda,
	0x001f08da,
	0xfffaf968,
	0x002239b8,
	0xfffbe386,
	0x000be735,
	0x0011f9a5,
	0x0005a1fe,
	0x00014f37,
	0x0013d14b,
	0xffff31ef,
	0xfffe1840,
	0x000fabdd,
	0x0008f31d,
	0x0002a2f3,
	0x0013c71e,
	0xfffdd37e,
	0xffef7e3b,
	0x000895a5,
	0xfffb230c,
	0x001b0d53,
	0x00015a9d,
	0x0022797d,
	0xfff295b0,
	0x00118f8b,
	0x0014461a,
	0x0006149b,
	0xffff8386,
	0x00159a92,
	0x00006a1e,
	0x000e2fb3,
	0x00114ccb,
	0x00022edb,
	0x00023756,
	0x001536dd,
	0xfffee1b5,
	0xffff8966,
	0x00000f65,
	0x00001da0,
	0x00006130,
	0xfffff87f,
	0x00006583,
	0x00001ff0,
	0x0000088e,
	0x00002352,
	0xffffeed9,
	0x0000447e,
	0x000023fa,
	0xffffa19c,
	0xffff9b16,
	0x00002495,
	0xffffd64b,
	0x00005586,
	0x00006140,
	0xfffff67e,
	0xfff02ef6,
	0x000a5103,
	0xffff890f,
	0x000fcbc1,
	0x0006f139,
	0x001d1455,
	0xfff420ad,
	0x000fc64e,
	0x000ec72b,
	0x0004d68c,
	0xffffaff5,
	0x001104be,
	0x0000040f,
	0x000f8b21,
	0x000ceb60,
	0x00007e0b,
	0xffff5b04,
	0x00115fae,
	0x0000d1cc,
	0x00008a33,
	0xffffcd31,
	0x00000c71,
	0xffff4a12,
	0x000000f5,
	0xffff3017,
	0x0000821a,
	0xffff6c14,
	0xffff5ebc,
	0xffffc580,
	0xfffffe81,
	0xffff5bc8,
	0x00000267,
	0xffff87a7,
	0xffff6ed2,
	0xfffffa45,
	0x000001a6,
	0xffff5b70,
	0x00000134,
	0xfff5bcd1,
	0x00083a00,
	0xfff63ef0,
	0x00168827,
	0xfffe2415,
	0x001bc791,
	0xfff90f6b,
	0x000a9b76,
	0x000e4d8d,
	0x0003281a,
	0x00008509,
	0x000fe0a8,
	0xffffa427,
	0x0008db18,
	0x000df768,
	0x0002676e,
	0x000167fa,
	0x0010484c,
	0xfffeebe8,
	0xfff2fb4a,
	0x0008f8d7,
	0xfff7e852,
	0x0017b09d,
	0xffff0fb1,
	0x001ed416,
	0xfff7313a,
	0x000cd2c8,
	0x000ffba6,
	0x0004310f,
	0x000040ac,
	0x0011e0d5,
	0xffffee25,
	0x000a4f58,
	0x000ff7ad,
	0x0002eeb5,
	0x000198a8,
	0x00124298,
	0xfffeca58,
	0xffffc0d0,
	0xffffe741,
	0x00003f86,
	0x00000c1a,
	0xfffff42d,
	0x00000171,
	0x00006027,
	0xffffceb9,
	0xffffe593,
	0xffffd6cf,
	0x00004b86,
	0xffffe03a,
	0xffffc951,
	0xffff4fb3,
	0xffffd930,
	0xfffffba3,
	0xffffcdf5,
	0x00000a4d,
	0x00002a14,
	0xfffd867e,
	0x0000a7f6,
	0xffff74ac,
	0x00035a0d,
	0xffffce7c,
	0x00042e5e,
	0xfffee253,
	0x0002415c,
	0x0002c8ef,
	0x000125bd,
	0xffffff23,
	0x0002ea07,
	0xffffc7d5,
	0x00008409,
	0x000111d4,
	0x0000ac75,
	0x0000adfd,
	0x00024547,
	0xffff7e92,
	0xfff18742,
	0x00098fbe,
	0xfff86e30,
	0x00186c35,
	0x00000c52,
	0x0020b736,
	0xfff68662,
	0x000deea5,
	0x0010d859,
	0x000491a8,
	0x00002a34,
	0x0012ea05,
	0x0000053b,
	0x000b0f13,
	0x00105aad,
	0x0002f324,
	0x000104f9,
	0x001376e2,
	0xffff22ef,
	0xfff6736f,
	0x0005a9b7,
	0xfffa24fd,
	0x001200d1,
	0xfffe5354,
	0x0016121b,
	0xfffb5c99,
	0x0009142d,
	0x000b9736,
	0x00027470,
	0x00006464,
	0x000d3030,
	0xffff7b30,
	0x00074c48,
	0x000c3994,
	0x0000404f,
	0x000199c6,
	0x000c5533,
	0xffff7682,
	0xffea2525,
	0x00057021,
	0xfffff5b5,
	0x00166560,
	0x00035c83,
	0x001bc1fe,
	0xfffbf417,
	0x000d14e3,
	0x000ec866,
	0x00056fc3,
	0xffffdc7e,
	0x00116b36,
	0x00008f0b,
	0x000d588c,
	0x000dc36f,
	0x0000653e,
	0x00011032,
	0x0010890c,
	0x00002399,
	0xffffbe2f,
	0xffffe9c0,
	0x000039d0,
	0x000011c0,
	0xffffe8c7,
	0x00000797,
	0x00005d65,
	0xffffd01b,
	0xffffe83f,
	0xffffd37b,
	0x00004df6,
	0xffffe3cf,
	0xffffc67d,
	0xffff5245,
	0xffffd832,
	0xfffff635,
	0xffffd6aa,
	0x00000fb4,
	0x000029e2,
	0xffeb8a71,
	0x000e40c3,
	0xfffbdd4e,
	0x001e710e,
	0x0002ed5f,
	0x002e0098,
	0xffeaf813,
	0x0017c6ba,
	0x0019c4e0,
	0x00082120,
	0xffffdcb9,
	0x001bee70,
	0xffff77cf,
	0x0010441a,
	0x000e68d6,
	0x0009df1b,
	0x00028619,
	0x001ca24e,
	0xfffd39df,
	0xfff546bc,
	0x0004fee3,
	0xfff3bfb7,
	0x001c18ef,
	0xfff74212,
	0x001b6e65,
	0xfffc6bf3,
	0x0007e5cc,
	0x000ee739,
	0x0003cbd8,
	0x00012c26,
	0x000ff970,
	0xffff429e,
	0x000106bd,
	0x000db425,
	0x00074262,
	0x0002e180,
	0x00109b76,
	0xfffca944,
	0xffef3383,
	0x00068917,
	0xffff8d3c,
	0x00168407,
	0x00034c83,
	0x001f879d,
	0xfff074fc,
	0x00127612,
	0x0014776d,
	0x0007f173,
	0xffff3f70,
	0x0014f5ca,
	0x00005b91,
	0x000d40d6,
	0x000c5d8b,
	0x0003ec2c,
	0x00008192,
	0x001466b0,
	0xffff3a43,
	0xfff24196,
	0x000896e4,
	0xfffb5f30,
	0x001533cf,
	0x00016327,
	0x001dbc92,
	0xfff515f7,
	0x000e3493,
	0x000ffb70,
	0x00049b82,
	0x00003f19,
	0x0011a007,
	0xffff9a49,
	0x000c3584,
	0x00116712,
	0x00012d9c,
	0x0001304a,
	0x0011c1c6,
	0xffffb783,
	0x000000c7,
	0xffffff3b,
	0xffffffd1,
	0xffffff1c,
	0xffffffce,
	0xffffff12,
	0x0000014e,
	0xfffffeeb,
	0xfffffeeb,
	0xffffff1e,
	0x00000013,
	0xfffffeff,
	0x00000013,
	0xffffff0b,
	0xffffff05,
	0xfffffff9,
	0xffffffea,
	0xfffffefe,
	0x00000004,
	0x00000539,
	0xfffffe96,
	0xfffffec9,
	0xfffffdd5,
	0xffffff2e,
	0xfffff9bb,
	0x0000007a,
	0xfffffebb,
	0xfffffcd6,
	0x00000362,
	0x0000009a,
	0xfffffdcd,
	0xfffffff3,
	0x00000313,
	0x00000064,
	0xffffffd9,
	0x00000014,
	0xfffffd90,
	0x00000004,
	0x0001cc5c,
	0x00007540,
	0x00037232,
	0xfff665e4,
	0x0000702e,
	0xffea089a,
	0x00162d8a,
	0xfff28bab,
	0xfff02be0,
	0xfff57667,
	0x000373b3,
	0xfff2b528,
	0xfffbd0ac,
	0xfff6bf79,
	0xfff43d18,
	0xfffe42c6,
	0xffff70cf,
	0xfff1f7cb,
	0x00006284,
	0x0000ea0e,
	0xfffef2ca,
	0x000184ee,
	0xfff9defc,
	0xffffcdba,
	0xfff47160,
	0x000ae7af,
	0xfff8a5f6,
	0xfff7883a,
	0xfffb89fb,
	0x00015404,
	0xfff896b2,
	0xfffec3f2,
	0xfffa0868,
	0xfff9fdf1,
	0xfffefdfe,
	0xffff5c6d,
	0xfff8c8bd,
	0x0000710b,
	0x0000975e,
	0xfffe29de,
	0x00027993,
	0xfff98ae6,
	0x00015324,
	0xfff7678e,
	0x0002e1c8,
	0xfffd038b,
	0xfffb9369,
	0xffff3bb8,
	0x00005dae,
	0xfffb4e48,
	0xffff805e,
	0xfffcdad2,
	0xfffc4ad5,
	0xffff21d5,
	0xffff2462,
	0xfffba0f2,
	0x00009775,
	0x0001cc39,
	0xfffda2a6,
	0x0003ad4e,
	0xfffe2241,
	0xfffcabc7,
	0xfff8bccd,
	0xffff745a,
	0xfffea8c8,
	0xffff3a7d,
	0xffff1c7d,
	0x0000e7e7,
	0xfffdc808,
	0xfffef57e,
	0xfff94cf9,
	0xfffc108d,
	0x000479c5,
	0xfffedf89,
	0xffff1e7a,
	0xffff5b84,
	0xffdcbd71,
	0x0006230e,
	0x0004a599,
	0x00229f92,
	0xfffe89b2,
	0x0033e33d,
	0xffd8ba35,
	0x001d5e58,
	0x00241614,
	0x00117efc,
	0xfffc10d5,
	0x001d6ae5,
	0x0002fc3a,
	0x00232a21,
	0x00323d92,
	0xfffaff98,
	0x00021eeb,
	0x002cd601,
	0x0001e7b4,
	0x00009be5,
	0x0000a873,
	0x0000c1bf,
	0x000112be,
	0xfffcee2f,
	0x00003703,
	0xfffb24f2,
	0x000139fb,
	0x00022987,
	0xffff7fec,
	0x0000b4c3,
	0x00011c77,
	0xffff62ec,
	0xfffd48f1,
	0xfffca9ab,
	0x00032e4c,
	0x00005e24,
	0x0002e254,
	0xfffee637,
	0xffffff5f,
	0xffffffa7,
	0x0000004a,
	0xffffff65,
	0x0000000e,
	0xffffffc5,
	0xffffff9d,
	0xffffff70,
	0xffffff95,
	0xffffffbe,
	0x00000070,
	0xffffff60,
	0xffffff80,
	0xffffffa5,
	0xffffff70,
	0x0000000e,
	0xfffffffa,
	0xffffff64,
	0xfffffff5,
	0xfffdaa14,
	0xfffe445f,
	0x0001efb3,
	0xfffd6b62,
	0xfffe4be5,
	0xfff983a2,
	0x00056e46,
	0xfffc67fa,
	0xfffc2bbe,
	0xfffebcc4,
	0x0000ae1e,
	0xfffc8118,
	0xffff6b33,
	0xfff9ae32,
	0xfffc4b34,
	0x0002db13,
	0xffffa972,
	0xfffd782d,
	0xffff99ce,
	0xffec57ae,
	0x000a9a81,
	0xfffb2005,
	0x0019ab9b,
	0x00067502,
	0x003660cb,
	0xffcf605f,
	0x001de357,
	0x001ba13e,
	0x0013c164,
	0xfffd4ed7,
	0x001d7396,
	0x00031e00,
	0x0008a556,
	0x001fe197,
	0x00113e57,
	0xfffe93b9,
	0x0031c40f,
	0xfff73c67,
	0x00020d9f,
	0x00006902,
	0x0003e182,
	0xfff4efd8,
	0x0000627b,
	0xffe6e389,
	0x00195117,
	0xfff09007,
	0xffedd924,
	0xfff402e5,
	0x0003db58,
	0xfff0bf71,
	0xfffb5a70,
	0xfff563f5,
	0xfff28229,
	0xfffdf50c,
	0xffff6481,
	0xffefee5f,
	0x00006c3e,
	0x0002a1c1,
	0xfffe76f6,
	0x0005b1e1,
	0xffea27b4,
	0xffff27f3,
	0xffd2d2b4,
	0x002d02d7,
	0xffe317fb,
	0xffde4a05,
	0xffec1976,
	0x0006ed72,
	0xffe37cfa,
	0xfff98316,
	0xffeb3bd9,
	0xffe73e76,
	0xfffc28f9,
	0xfffef653,
	0xffe29e8a,
	0x0000f4d1,
	0xfffea047,
	0xffff76fc,
	0xffffa2f6,
	0x000090ce,
	0xfffe5d74,
	0xfffe43f9,
	0x00022ae3,
	0xfffee1bd,
	0xffff3e2b,
	0xffffcd1e,
	0x0000938e,
	0xffff38f5,
	0xffff4ae5,
	0xfffa8928,
	0xfffff574,
	0x00021423,
	0x000037c2,
	0xffffa982,
	0xffff9df9,
	0xfffffb82,
	0xffffffb1,
	0x00000156,
	0x000002cb,
	0xffffff68,
	0x000004e0,
	0xfffff9c0,
	0x00000186,
	0x000002c2,
	0x000001e8,
	0x00000127,
	0x00000192,
	0xfffffeb9,
	0x0000031f,
	0x000002e5,
	0xfffffecd,
	0xffffffde,
	0x00000198,
	0x00000055,
	0x0005b378,
	0xfffcfd14,
	0x0003de71,
	0xfff170cd,
	0xfffe9c82,
	0xffe24743,
	0x00189c64,
	0xffee7c13,
	0xffec44b2,
	0xfff4028b,
	0x0003d19b,
	0xffee3892,
	0xfffc184e,
	0xfff6db5f,
	0xfff0fbdf,
	0xfffbf5c1,
	0xffff501b,
	0xffedeeb5,
	0x00008123,
	0x0002befe,
	0x0000e053,
	0xfffff932,
	0xffff06d0,
	0xfffa6281,
	0xfffd4d52,
	0xfffab75d,
	0xfffff820,
	0x00014809,
	0xfffe7239,
	0x0001114b,
	0xffffdc9d,
	0xffff24f4,
	0xfff97bf6,
	0xfff8ec52,
	0x0004a913,
	0x00011d20,
	0x0001cd16,
	0xfffdfc1c,
	0x00023a38,
	0x0000700c,
	0x00043309,
	0xfff3bdf7,
	0x000062ca,
	0xffe441cd,
	0x001bf2e2,
	0xffeeeb31,
	0xffebeacd,
	0xfff2cb68,
	0x00042a64,
	0xffef1fbb,
	0xfffafae0,
	0xfff44d18,
	0xfff1171b,
	0xfffdbf80,
	0xffff6b7d,
	0xffee3bf9,
	0x00006f3b,
	0x0002fcbe,
	0xfffdb9dc,
	0x0000f828,
	0xfff844f9,
	0xfffde58a,
	0xffec8db3,
	0x00120b59,
	0xfff403b5,
	0xfff33b49,
	0xfff8c2e5,
	0x0002a0f0,
	0xfff45f4d,
	0xfffd5335,
	0xfff47a08,
	0xfff7c19d,
	0xffffb352,
	0xffffc0d2,
	0xfff43245,
	0x00005b39,
	0xfffff771,
	0x000001da,
	0x00000680,
	0xfffff5dd,
	0xfffffe82,
	0xfffffdfa,
	0xfffffdf8,
	0xfffff93d,
	0xfffff837,
	0x00000f2d,
	0x00000361,
	0xfffff753,
	0xfffffbbd,
	0x00000677,
	0xfffffd61,
	0xfffffe73,
	0xffffff5f,
	0xfffff74c,
	0x00000061,
	0x0001df27,
	0xfffef39e,
	0x00035c66,
	0xfff4ab53,
	0x0000a148,
	0xffeacf55,
	0x00119609,
	0xfff49ca6,
	0xfff21a3f,
	0xfff7aa3c,
	0x00030077,
	0xfff3ab66,
	0xfffcbb15,
	0xfff85326,
	0xfff63f84,
	0xfffd94c7,
	0xffff2181,
	0xfff3582b,
	0x0000d4a5,
	0x0003c7d6,
	0xfffcf3b2,
	0x00039957,
	0xfff36871,
	0x00006b16,
	0xffe9d7f2,
	0x000ff2ee,
	0xfff44931,
	0xfff22a3c,
	0xfff8e6bf,
	0x000264c3,
	0xfff2f0f8,
	0xfffd8565,
	0xfff7a7ac,
	0xfff5d0cf,
	0xfffdb213,
	0xfffecb3d,
	0xfff2bb68,
	0x000109d5,
	0x000166a9,
	0x00007466,
	0x0002b60f,
	0xfff8c158,
	0x000075f4,
	0xffef348d,
	0x0010f9be,
	0xfff5cb78,
	0xfff3fa80,
	0xfff7ec61,
	0x0002bd81,
	0xfff5eaa9,
	0xfffca686,
	0xfff8f356,
	0xfff713c7,
	0xfffec228,
	0xffff6b58,
	0xfff551a0,
	0x000056ea,
	0xfff6a483,
	0x00031841,
	0xfffd4152,
	0x00144cd6,
	0x000149d7,
	0x0022eb76,
	0xffe44305,
	0x0013740e,
	0x0016e49b,
	0x000c17b4,
	0xfffdd7c9,
	0x00145175,
	0x000297b3,
	0x0007c28e,
	0x000f222f,
	0x00086158,
	0xfffff088,
	0x0018dc6d,
	0xfffde70b,
	0x0004bdcf,
	0xfffcf3a3,
	0x0003942a,
	0xfff1fcdb,
	0x00001195,
	0xffe645e8,
	0x001376a0,
	0xfff1fbb8,
	0xffef95ac,
	0xfff71618,
	0x0002fdcc,
	0xfff0b578,
	0xfffcf373,
	0xfff62389,
	0xfff480ed,
	0xfffd2fa7,
	0xfffedbb4,
	0xfff0662f,
	0x000116df,
	0xfffe2ec7,
	0xffff4dbc,
	0x00018a92,
	0xfffef3ed,
	0x0000778a,
	0xfffeccbb,
	0xfffe58de,
	0x0000ee6d,
	0x00008782,
	0x0000f889,
	0x000029d9,
	0xfffff023,
	0xffff9dea,
	0xfffe3e0c,
	0xfffff9ba,
	0x0000dcf9,
	0xffff753e,
	0x00008e28,
	0x0000207c,
	0x0003f07e,
	0xfffd608f,
	0x00043791,
	0xfff9f7b1,
	0xffff62e4,
	0xfff83d1d,
	0xfffd6654,
	0xffff1582,
	0xfffe855b,
	0xffff9911,
	0x0000c6c4,
	0xfffcc15b,
	0xffff1cfb,
	0xfffc9451,
	0xfffc4e80,
	0x00027935,
	0xfffee87a,
	0xfffde550,
	0xffffea10,
	0x00017af6,
	0x000077cb,
	0x0002dfc1,
	0xfff84ebf,
	0x000074b7,
	0xffee3ac0,
	0x0011f7e2,
	0xfff52c35,
	0xfff340b7,
	0xfff76fd2,
	0x0002e633,
	0xfff54de9,
	0xfffc771f,
	0xfff8831d,
	0xfff68712,
	0xfffea794,
	0xffff6534,
	0xfff4adfc,
	0x00005984,
	0x0006b979,
	0xfffa2d2b,
	0x0006c9a4,
	0xffee5255,
	0xfffeb736,
	0xffe05199,
	0x0014b2e1,
	0xffef4e4a,
	0xffed1089,
	0xfff774fa,
	0x00028022,
	0xffed7d3e,
	0xfffd9bd8,
	0xfff38cda,
	0xfff23bc0,
	0xfffd04b8,
	0xfffd4c24,
	0xffee0605,
	0x00018ad0,
	0x00054608,
	0xfffdfdb6,
	0x0004feb1,
	0xffef56a4,
	0x00016b2e,
	0xffe23192,
	0x0017c9b2,
	0xffef9e29,
	0xffec16c2,
	0xfff3a118,
	0x00038784,
	0xffee23fe,
	0xfffc19db,
	0xfff79b73,
	0xfff19065,
	0xfffad9fe,
	0xfffeb28c,
	0xffed932d,
	0x00015129,
	0xfff909df,
	0x00002003,
	0x0003c1a5,
	0x0003c534,
	0xffffbcde,
	0x0001c845,
	0xfffe18cb,
	0x00014320,
	0x0001ce32,
	0x000154cb,
	0x000070db,
	0x0001756a,
	0xffffce72,
	0xfffd3b3b,
	0xfffe0483,
	0x0004a287,
	0xfffeed14,
	0x00059ef3,
	0xffff1ef9,
	0x00023314,
	0xfffc9114,
	0x0001818d,
	0xfff94b4b,
	0xfffebfb4,
	0xfff3e4c9,
	0x00080625,
	0xfff95ada,
	0xfff8f137,
	0xfffd7578,
	0x0000ad59,
	0xfff8c4e6,
	0xffff4ea3,
	0xfff871e3,
	0xfffb826e,
	0xffffd9bf,
	0xffff363a,
	0xfff926e4,
	0x00008af4,
	0xffffffda,
	0x00000024,
	0xffffffd7,
	0x00000000,
	0x0000000a,
	0xfffffffc,
	0xfffffffd,
	0xffffffea,
	0xfffffff1,
	0xffffffea,
	0x00000006,
	0xfffffff1,
	0xfffffffc,
	0xfffffffa,
	0xfffffff4,
	0x00000013,
	0xffffffff,
	0xfffffff2,
	0xfffffffe,
	0xffff9f74,
	0x00002885,
	0x00000ac8,
	0xffffd92c,
	0xffffd156,
	0xffff6c71,
	0xffff9936,
	0xffffd557,
	0x00003298,
	0x00001869,
	0x0000281f,
	0x00004bad,
	0x000010eb,
	0xffffd2bd,
	0xffffb3c6,
	0x00007c75,
	0xffffd7ff,
	0x00000398,
	0x00008d5d,
	0x00001f8c,
	0x00002e18,
	0x00002898,
	0xffffe7cd,
	0xffffddce,
	0xffffe250,
	0x00004ba6,
	0x00002894,
	0xffffc686,
	0xffffcdf0,
	0x0000481c,
	0xffffc4e2,
	0xfffff079,
	0xffff3ac0,
	0x000473a4,
	0x00026dfc,
	0xfffc6ecb,
	0x00012964,
	0xffff4b4b,
	0x000119f2,
	0xffff8647,
	0x00027f4a,
	0x0001b8cc,
	0x00046dfb,
	0x00060e43,
	0x00038e6c,
	0xffff9973,
	0x0000feb4,
	0x00003108,
	0xfffb5362,
	0xfffcd615,
	0x0000c7d3,
	0x0001f450,
	0x0001bdcf,
	0x00045469,
	0xfffb8106,
	0xfffe3413,
	0xfffd4d01,
	0x0000ee92,
	0x000458cd,
	0x00011c62,
	0xffff1daf,
	0xfffcb7ed,
	0xfffd55a0,
	0xfffff1bc,
	0x000039a7,
	0x0005da3d,
	0x0014c8c5,
	0xffe772b8,
	0x0002fb87,
	0xfff2af60,
	0xffe50de3,
	0x000000f4,
	0x001a0046,
	0x00086fe7,
	0x00059c61,
	0x0025c066,
	0x0014c2c7,
	0xffffc679,
	0xfff257bd,
	0x00275bb1,
	0xfffaa989,
	0xffed42b0,
	0x00001260,
	0x0013afea,
	0x00175b32,
	0x00062c7f,
	0xfff4e991,
	0xffe8f8d0,
	0xffecdced,
	0xfffc7236,
	0x00061c15,
	0xffded507,
	0xffebb11b,
	0x000b56c0,
	0xffe56ed0,
	0xfffff977,
	0xffffb646,
	0xfff8dd07,
	0xffed7d2c,
	0x0023dc9b,
	0xfffa2389,
	0x000ffe54,
	0x000754bf,
	0xfffff2f3,
	0xffe518de,
	0xfff6852b,
	0xfff8e8f1,
	0xffdedab9,
	0xffe63177,
	0x0000303c,
	0x001d3707,
	0xfff34a91,
	0x0006f292,
	0x001a60ee,
	0x000012c8,
	0xffdaa23c,
	0xffd5b74e,
	0xfff8d20e,
	0x0009b944,
	0x002a821a,
	0x001e4f6e,
	0x00101adf,
	0xfff8d4b3,
	0x000e4c02,
	0x002804ba,
	0x00045f73,
	0x0024737b,
	0x00000624,
	0x00003ce1,
	0xffff84a2,
	0x0015814e,
	0xfff4b803,
	0x004c8f9b,
	0xffe1c5e7,
	0xffe90211,
	0xffffda5a,
	0x00145785,
	0x003c349e,
	0x0005a5dd,
	0xfff04f98,
	0x001372f7,
	0xffffd3b4,
	0x001abee7,
	0x00308011,
	0x0001ffc3,
	0xfff8ca7b,
	0xffff78bb,
	0x0000dec8,
	0xfff6d7bf,
	0x0000b009,
	0xffe18bf4,
	0x0005bd59,
	0xffeb3c0f,
	0xffd99480,
	0x000176ff,
	0x0027ed38,
	0x00223edf,
	0xffe3f475,
	0xfff7f6f2,
	0x000028da,
	0xffffbe81,
	0x000ae1e1,
	0x00015c92,
	0xfff981d3,
	0xfffcc616,
	0x00122f36,
	0x00055af4,
	0xfffff34c,
	0xffffe2f5,
	0x00112c2c,
	0x000aedb2,
	0x00030b5a,
	0x0006b315,
	0x000007c5,
	0x00008883,
	0xfffa6cef,
	0xfff4d21f,
	0xfff7849a,
	0x00003202,
	0x00076eaf,
	0x0005eb06,
	0x000ac1aa,
	0xfff4bf4b,
	0xfff9a70c,
	0xfffa34b1,
	0x00024d35,
	0x000acef6,
	0x0000add6,
	0xfffb4476,
	0xfff55b55,
	0xfffc498a,
	0x00000061,
	0x000010a3,
	0x00045a1b,
	0xfff4de6c,
	0x0001cb93,
	0x00149316,
	0x0020492f,
	0x0047fb09,
	0xfffffa3c,
	0xfff1b19a,
	0x002c21dd,
	0x0004a1a6,
	0xffebfc51,
	0xfffb74dc,
	0xffffeee9,
	0x0011cfb0,
	0xffb3c3ed,
	0xfffb5d45,
	0x000856d0,
	0x0000138e,
	0xfff7af3f,
	0xfff895c9,
	0x00045b66,
	0xffe5ce3c,
	0x000ace67,
	0xfffc945e,
	0xffe7b7d8,
	0x0004cb5b,
	0x0021bbaf,
	0x000cf919,
	0xffac5578,
	0x00042002,
	0xffffd85a,
	0xffffe050,
	0x000009f2,
	0x00001ad4,
	0xfffff5cb,
	0x00001c92,
	0xffffdc6c,
	0xffffe281,
	0xfffff82c,
	0x00001d39,
	0x0000030e,
	0x000009bf,
	0x00001eef,
	0x000019fc,
	0xfffff571,
	0xffffff27,
	0x00002555,
	0xfffff68d,
	0xffffe3a5,
	0x00002c43,
	0x000008b7,
	0x00000a07,
	0x00000a56,
	0xfffffa9c,
	0xfffff293,
	0xfffff210,
	0xffffdc4d,
	0x00000a52,
	0xffffde92,
	0xfffffdd5,
	0x0000164c,
	0xffffecdc,
	0xfffffdd7,
	0xffffa192,
	0xfffaedee,
	0x001d092e,
	0xfff6c0e6,
	0x001d1c10,
	0xffd132ab,
	0xffc834ba,
	0xffffd9f6,
	0x003b7125,
	0xffe3732a,
	0xfffbaad0,
	0x0018a124,
	0x0011c639,
	0x0000135e,
	0xffdd8562,
	0x0052d3f7,
	0x0004e459,
	0xfff0aaa7,
	0x00006eae,
	0x0009825b,
	0x00121cba,
	0xfffa87e3,
	0x000df85b,
	0xfff009ea,
	0xfff61ddf,
	0xffd75199,
	0xfffaf411,
	0xfff35127,
	0xfff1ba18,
	0x001f073e,
	0xffe024c5,
	0xffffd46d,
	0xffffdc38,
	0x000fc511,
	0x00052a77,
	0xfff44fa6,
	0x000050ef,
	0x00077f21,
	0xfffe01e4,
	0xfffffa83,
	0x000815cf,
	0x00174804,
	0x000fd9b6,
	0x000962ea,
	0x000d0b17,
	0x00001447,
	0xfffb2db9,
	0x0004a980,
	0xffef9cf7,
	0xfff09016,
	0x00000f2f,
	0x000d92c1,
	0x000c931b,
	0x000f9a4e,
	0xffef882b,
	0xfff31521,
	0xfff5dc10,
	0x00007f6f,
	0x000fac74,
	0xfffca88c,
	0xfff66548,
	0xfff99e21,
	0xfff4ea91,
	0x0000003c,
	0xffff3fd2,
	0x00042fa3,
	0x0002ca1c,
	0xfffc329f,
	0x00015ade,
	0xfffeddc2,
	0x0000dcb9,
	0xffff8ad7,
	0x00027712,
	0x0001420e,
	0x0004289f,
	0x0005dc41,
	0x00038fa5,
	0xffff9891,
	0x000119a6,
	0x00006632,
	0xfffb979f,
	0xfffd030c,
	0x0000cad0,
	0x0001efa6,
	0x0001c142,
	0x00041247,
	0xfffbcbb8,
	0xfffe388f,
	0xfffd0215,
	0x0000a069,
	0x00041626,
	0x0001937f,
	0xffff2f76,
	0xfffcd118,
	0xfffd4326,
	0xfffff202,
	0x00007d63,
	0x00241f36,
	0xffe6f224,
	0x0000195b,
	0xfff82a4c,
	0xffd6b0fd,
	0xffef1b83,
	0x00000063,
	0x001744c1,
	0x0001b39e,
	0x00260ebc,
	0xfff5514e,
	0x0011dfb8,
	0xffffa931,
	0xffd37aab,
	0x00180dd6,
	0xffd9a948,
	0xffd3b1b3,
	0x00000469,
	0x002f0b98,
	0x00306a8e,
	0x00218cef,
	0xfff57238,
	0xffcbb509,
	0xffff50fc,
	0x001275ad,
	0x0021a8eb,
	0xffb666f2,
	0xffcadb8b,
	0x001bb9fd,
	0xffe30856,
	0x000018b8,
	0xffffb71f,
	0xfffd3e2b,
	0x0017801a,
	0xffe8b28c,
	0x0010d9bc,
	0x00046be8,
	0xffe676fa,
	0xffffe9b3,
	0x00241493,
	0xfff5b7c9,
	0xfffd42c3,
	0x0019f604,
	0x001ccbec,
	0xffffb34d,
	0xfffd194b,
	0x0024ce50,
	0x0002a023,
	0xffe081de,
	0x0000a10d,
	0x00173e70,
	0x001c07cf,
	0xfffd036c,
	0x0006192c,
	0xffe1df5f,
	0xffe9cc6b,
	0xffece144,
	0xfffd0db3,
	0xffe29271,
	0xfff2563f,
	0x000b4c39,
	0xffdddd29,
	0xffffe8da,
	0xffffa5fd,
	0x00000a95,
	0xffffeda0,
	0x0000117e,
	0x00003fcd,
	0xffff1c52,
	0xfffff0ca,
	0xffffe54c,
	0xffffffa3,
	0xffffed04,
	0x00000bdd,
	0xffffd599,
	0xfffff930,
	0xffffd47d,
	0x000032dc,
	0xffffec8b,
	0xfffff290,
	0xffffda5c,
	0x0000a50a,
	0xfffffb98,
	0x000009c2,
	0x00000828,
	0x00000392,
	0xfffff527,
	0x00000a68,
	0xffffb49d,
	0x0000089b,
	0xffffecb2,
	0x000022ef,
	0x000049ba,
	0xffffef16,
	0xfffff96d,
	0xffff79b0,
	0x0005b94d,
	0xfff20b66,
	0x0001ae9e,
	0x00126940,
	0x004ca185,
	0x002b49a8,
	0xffffee62,
	0xffe2934b,
	0x001d7a19,
	0x0006053f,
	0xffef7531,
	0x00155d2c,
	0xffff894d,
	0x006576b4,
	0xffc4ab6a,
	0xfffa50f5,
	0xffd2f4ea,
	0x0000998e,
	0x00052d34,
	0xffff2f0c,
	0x000565d7,
	0xfff1ecb9,
	0xfff74aa2,
	0xfffdf31b,
	0x0032a8b7,
	0x00059c9c,
	0xffe59328,
	0x00306c0a,
	0xffe18774,
	0xfffeee37,
	0x0000389a,
	0xffffc29b,
	0xfffad3a8,
	0x00189212,
	0xfff95689,
	0xfff3771f,
	0xffd73c1b,
	0xff9fc0a7,
	0x000000c7,
	0x001a8c60,
	0xffdcde90,
	0xfffa2805,
	0x0021fb25,
	0x000b1833,
	0xffffe69e,
	0xffeab321,
	0x007357c6,
	0x0003f3d9,
	0xfff57845,
	0x00003655,
	0x0009a563,
	0x000bef70,
	0xfffb4e0d,
	0x001511f4,
	0xfff3142a,
	0xfffebe5b,
	0x001bbe32,
	0xfffb4304,
	0xffd57b79,
	0xfff19798,
	0x0052861f,
	0xfff306c9,
	0x00002358,
	0x00007abf,
	0xfffb2e45,
	0xfffd0fb4,
	0x00041b8c,
	0xffff5955,
	0x000174e9,
	0xffff85d9,
	0x00004e98,
	0xfffd4942,
	0xffffaeac,
	0xfffb320e,
	0xfff9c8cc,
	0xfffc1bca,
	0x0000493e,
	0xffff77a5,
	0xffff260e,
	0x00050737,
	0x000380b9,
	0xffff79ca,
	0xfffd8317,
	0xfffdcf8d,
	0xfffb56f0,
	0x00045a12,
	0x00024a47,
	0x00033e93,
	0xffff4019,
	0xfffb52a7,
	0x00000194,
	0x00018361,
	0x000240fd,
	0x000300cc,
	0x0000092f,
	0x000091aa,
	0x00049ae3,
	0xffe55253,
	0x0013faf2,
	0xfff027a2,
	0x0007aea7,
	0x00185aa9,
	0xfffff564,
	0xffd8359c,
	0x0017d596,
	0x0004a518,
	0xffdf6d7f,
	0xffdf3a11,
	0x00000870,
	0xfff31368,
	0xffdd7014,
	0xfffb31df,
	0x00303814,
	0xffffab5a,
	0xffeba6b3,
	0xffe07cfd,
	0x00050566,
	0xfff2daa6,
	0x00247829,
	0x0015051c,
	0x00180223,
	0x0004e36b,
	0x005192bf,
	0x00050b27,
	0xffee961f,
	0x002e330f,
	0xffffe082,
	0x0000c2b2,
	0xffffe01d,
	0x000002f6,
	0x00001df0,
	0xfffff548,
	0x00014b90,
	0x00005ef8,
	0x00004299,
	0xffffd5e1,
	0xffffec1f,
	0xffffdfe4,
	0xffffde43,
	0xfffffc17,
	0x00008592,
	0x0000077a,
	0xffffa423,
	0x000020f9,
	0x000008fd,
	0xffff0303,
	0xfffff232,
	0xffffd1ec,
	0xffffe0ef,
	0x000014db,
	0x00001f0f,
	0x00001bd8,
	0xffffd3fe,
	0xffffe0c5,
	0x00004c0c,
	0x000002f3,
	0xffff9b46,
	0x0000542f,
	0x00001720,
	0x0000334a,
	0xfffa1a74,
	0x001896cc,
	0xffd8d1d9,
	0x00095e2d,
	0xffe06ce6,
	0xfff15d38,
	0x000011e4,
	0x001f1cfe,
	0xffea92c9,
	0xfff9f756,
	0x001e8dda,
	0x001c4710,
	0xfffff3ba,
	0xffe44aa2,
	0x0014ba76,
	0x000642e6,
	0xffe4e5b1,
	0xffffe2cd,
	0x0026b70d,
	0x002d6d92,
	0xfffa1db3,
	0x000b0230,
	0xffd15382,
	0xffdbdeb9,
	0xffe35abd,
	0xfffa1b6d,
	0xffe484f1,
	0xffd732b0,
	0x0005cfc7,
	0xffd844ea,
	0xfffff671,
	0x00003752,
	0xfff94a8b,
	0x001b3f63,
	0xffdd9454,
	0x00127fc6,
	0xffc56253,
	0xfff02cd0,
	0xfffff728,
	0x0024a178,
	0xffe8b693,
	0xfff92826,
	0x00214722,
	0x00186ac3,
	0x00000b4d,
	0xffe46b27,
	0x0017f2d7,
	0x00075d21,
	0xffe67670,
	0xffffc82b,
	0x001e567d,
	0x002c4e77,
	0xfff9100b,
	0x000b6205,
	0xffd4432a,
	0xffdf10e8,
	0xffdba51c,
	0xfff922b2,
	0xffd25d8f,
	0xffdcf727,
	0x0009144b,
	0xffd0e1ca,
	0xffffdfda,
	0xffff3c4e,
	0x0004707f,
	0x0001d62f,
	0xfffd31d7,
	0x000108c4,
	0xffffa330,
	0x00013c25,
	0xffff871d,
	0x000286df,
	0x0001de19,
	0x00046dda,
	0x0005d0d0,
	0x00035382,
	0xffff9b45,
	0x0001163f,
	0x00000851,
	0xfffb5839,
	0xfffca1e3,
	0x0000bfc3,
	0x0001a3cd,
	0x00017722,
	0x00044dbb,
	0xfffb9947,
	0xfffe5f38,
	0xfffe0925,
	0x000124f2,
	0x00045354,
	0xfffffc9c,
	0xffff5bff,
	0xfffd050c,
	0xfffd9715,
	0xfffff1d2,
	0x00001885,
	0xfff48f32,
	0xfffd273b,
	0x0007196c,
	0xffffc7d6,
	0xfff87bff,
	0xffff79d7,
	0x00000a27,
	0xfffbc19f,
	0xffed3d5f,
	0xfff47d7d,
	0xfff9e1c5,
	0xfff7cb06,
	0x000006be,
	0x000182ff,
	0xfffe5757,
	0x000bedaf,
	0x00095986,
	0xffffe113,
	0xfff866e7,
	0xfff954fa,
	0xfff4bb39,
	0x000d9d5a,
	0x0006c82e,
	0x00060f3d,
	0xfffea43b,
	0xfff4aa62,
	0x00001b84,
	0x0005040b,
	0x00084c24,
	0x0006008e,
	0x0000045c,
	0xffffe4db,
	0x0007a68e,
	0xffe3c88d,
	0x00231e89,
	0xfff30b41,
	0x0033aa4c,
	0x0011926a,
	0xfffffbdb,
	0xffdab840,
	0x001a377e,
	0x0007c394,
	0xffda0914,
	0xffe50011,
	0xffffff1e,
	0x0019df29,
	0xffe6bc85,
	0xfff7d4fd,
	0x001f74d8,
	0x00001e42,
	0xffdeffea,
	0xffd1fe8f,
	0x0007bc67,
	0xfff164c5,
	0x002f6760,
	0x00218de9,
	0x0023a139,
	0x0007a9b4,
	0x003dd1e3,
	0x00240bf4,
	0xfff3637a,
	0x00313c50,
	0x000010ff,
	0xffffe09b,
	0xfffe6da5,
	0xffe95750,
	0x002135d2,
	0xfff02345,
	0x000cf335,
	0x0009f61d,
	0x000005c1,
	0xffe3d5cf,
	0xfff82d84,
	0xfffe7e3b,
	0xffe53874,
	0xffe6ac89,
	0x00004aa7,
	0x00117f28,
	0xffeefcd9,
	0x00016a03,
	0x0017aa11,
	0xffffcda9,
	0xffe19363,
	0xffdc063e,
	0xfffe56ed,
	0x0005ff1c,
	0x002382cf,
	0x001e346c,
	0x001637b6,
	0xfffe56d3,
	0x000ccd55,
	0x001c8822,
	0x00059966,
	0x00239afa,
	0x00001157,
	0x00004c9b,
	0x0004564f,
	0xffdd25e6,
	0x00152cdd,
	0xffd52085,
	0x0024d48f,
	0x00241cd8,
	0xfffff9d2,
	0xffc8911c,
	0xffeb9cfc,
	0x00042d75,
	0xfffd9b0f,
	0xffed3433,
	0xffff71c0,
	0x002cd025,
	0xffc816f4,
	0xfffbd513,
	0x0006cef3,
	0x00001eb1,
	0xfff72cd9,
	0xfff1a6da,
	0x000408cc,
	0x00076c6b,
	0x000a56b6,
	0x0019cb78,
	0x005d8a39,
	0x0003ea93,
	0xffcf862b,
	0x000dfa84,
	0xfffd833c,
	0x001aa5f9,
	0x00000e0f,
	0xffff4116,
	0x00045a6e,
	0x00021386,
	0xfffce219,
	0x00011cfd,
	0xffff787c,
	0x0001174b,
	0xffff87db,
	0x00027171,
	0x0001b3d8,
	0x00045655,
	0x0005f4e4,
	0x00036790,
	0xffff9c7a,
	0x00011d10,
	0x00002c12,
	0xfffb6fac,
	0xfffcc07e,
	0x0000bd28,
	0x0001ce18,
	0x000193db,
	0x000439df,
	0xfffbac3b,
	0xfffe4b8f,
	0xfffdc151,
	0x000119a3,
	0x00043ec4,
	0x000055ab,
	0xffff3ae2,
	0xfffd1d9c,
	0xfffd891e,
	0xfffff218,
	0xffffaa3e,
	0x000f0233,
	0xfff4b8ef,
	0xfff627d9,
	0x0014a5ef,
	0x0021fe78,
	0xfff32b0e,
	0xfffff470,
	0xfffed213,
	0x00428109,
	0x0013fc70,
	0xffd5f31a,
	0xfffc6e76,
	0x00006d2f,
	0xffd58431,
	0x001d61ef,
	0xfff5ff3a,
	0x001cd3ab,
	0x00001d1d,
	0x0003943d,
	0xffff3ed0,
	0x00069481,
	0xffdc1911,
	0x00121ce0,
	0xfffe5ae5,
	0xfffd2a89,
	0x00082597,
	0x00e22aa7,
	0xffec3bd1,
	0xffc8ddb3,
	0x00240580,
	0xffffddd9,
	0xffff5eac,
	0x00057aa6,
	0xffea6262,
	0x001a7f12,
	0x000c775f,
	0x003fc8b7,
	0x0013b166,
	0xfffff8dd,
	0xffe5d363,
	0x001787d0,
	0x0005b241,
	0xffdc654b,
	0xfffc459e,
	0xffffc08b,
	0x004a464b,
	0xffe4ca91,
	0xfff9f951,
	0xfff3c5c1,
	0x00008c41,
	0xffec032e,
	0xffe25406,
	0x00052af5,
	0xfff4d09c,
	0x001975c7,
	0x0016b713,
	0x00223978,
	0x00055899,
	0x00190f2f,
	0x003a129e,
	0xfff1742c,
	0x001c7327,
	0x000028ef,
	0x000002be,
	0xfffca470,
	0xffe6b243,
	0x001930c2,
	0xffe1be5b,
	0xffbdf9e3,
	0xffd7d3fa,
	0xfffffecf,
	0xfffc3685,
	0xffa242de,
	0x0000b4e8,
	0xfffe6cf8,
	0xfff88b49,
	0x00004ef0,
	0xfffdab22,
	0x001ad853,
	0x0000a7cb,
	0xfff853d6,
	0xffffce85,
	0x0000e88f,
	0xfff8047e,
	0xfffd14db,
	0x0034b8d3,
	0xffffb179,
	0x0021760a,
	0x00258f0b,
	0xffff2df2,
	0xffcd8d90,
	0xfff9a319,
	0x006788b7,
	0x000fdf8e,
	0xfffffc03,
	0xffffef6c,
	0x000705fe,
	0xffe1d1d9,
	0x00180287,
	0xffe17ca7,
	0x0037bb0b,
	0x00179cc4,
	0x000026b9,
	0xffd383d8,
	0x001853a9,
	0x0007049d,
	0xffdd488e,
	0xffe8f728,
	0x0000082e,
	0x000948cf,
	0xffd92d84,
	0xfff911f3,
	0x00194aef,
	0xffffe7f9,
	0xffeee99b,
	0xffdf6fb1,
	0x00071168,
	0xfff60f1f,
	0x001e27f0,
	0x00184130,
	0x0021fd3b,
	0x0006f19b,
	0x003b9d7b,
	0x000f5205,
	0xfff21c14,
	0x002fd98c,
	0x00004805,
	0xfffff681,
	0xfffff1a9,
	0xfffffb49,
	0x00001724,
	0xfffff723,
	0xfffff935,
	0xfffffce8,
	0xfffffda6,
	0x000006a8,
	0xfffff6a8,
	0xfffff0e8,
	0x000014b6,
	0xfffff6f2,
	0xfffffd7c,
	0x00000338,
	0x00000669,
	0x00001010,
	0x00000c1b,
	0x00000b7a,
	0xffffde54,
	0xffffe3f4,
	0xfffff387,
	0x00000dcf,
	0x00001add,
	0x0000149f,
	0x00000b62,
	0xfffff344,
	0xfffffa35,
	0x00001c2a,
	0x00000d29,
	0x000006cf,
	0xffffff5b,
	0xfffffc82,
	0xffffc384,
	0xfffff48c,
	0x000030f9,
	0x00000971,
	0xfffffd55,
	0x00000251,
	0xffffff1f,
	0xffffd46f,
	0xffffe0a3,
	0xffffc2f0,
	0xffffd55b,
	0xffffcdf4,
	0xffffff5a,
	0x00003468,
	0xffffed23,
	0x00003e56,
	0x00003ddd,
	0x000003b6,
	0xffffc167,
	0xffffc37b,
	0xffffc550,
	0x00003361,
	0x00003eaa,
	0x00002a3f,
	0xfffffc26,
	0xffffc50c,
	0x00001ee6,
	0x00003ea4,
	0x00000e5d,
	0x00003249,
	0xffffffc6,
	0xffff91eb,
	0xffffe2e3,
	0x00000f42,
	0xffffe639,
	0x00008277,
	0x00003cb9,
	0x00003985,
	0xffffd570,
	0x000010cf,
	0x00006cb8,
	0xffffe28a,
	0x00005e6f,
	0x00001952,
	0xffff9a26,
	0x00004bf0,
	0xffffd580,
	0x000018fa,
	0xffffeeb4,
	0x0000b80a,
	0xfffff43d,
	0xfffffa1e,
	0xffffe1c6,
	0xfffff4be,
	0x00000028,
	0xfffffc89,
	0x00004995,
	0xffffe1ea,
	0x00007824,
	0x0000256c,
	0xffffb89e,
	0xfffff761,
	0xfffff623,
	0xffffc74a,
	0x0009f067,
	0x00033175,
	0xfff85684,
	0xfffd6bca,
	0xfffc73a0,
	0xfffaf732,
	0xffffd8e6,
	0x0006b58c,
	0x0005419e,
	0x000a01ad,
	0x000a0751,
	0x0008e188,
	0xfffffffb,
	0xfffbb225,
	0x00086660,
	0xfff5c4d5,
	0xfff47ae1,
	0x00001ad1,
	0x000a597c,
	0x0009d795,
	0x0009b0eb,
	0xfff76abf,
	0xfff5a848,
	0xfffa2327,
	0x0003a61b,
	0x0009ba74,
	0xfff41b93,
	0xfff75faa,
	0x0000500c,
	0xfff7969c,
	0xfffff46c,
	0xffffc0c1,
	0x000cbb9a,
	0xfffe9f15,
	0xfffb0e24,
	0xfffcd5c3,
	0x0004ed9c,
	0x000479b4,
	0xffffe6a4,
	0xffff8559,
	0x000a383c,
	0x000cd6cb,
	0x00036267,
	0x000608a4,
	0xffffe3e6,
	0x0000b980,
	0xfffc4958,
	0xfff2e190,
	0xfff6c340,
	0x0000475b,
	0x00082cc2,
	0x0006d06d,
	0x000c61af,
	0xfff457e5,
	0xfff8c0c1,
	0xfffc29c8,
	0x000665c1,
	0x000c6de5,
	0xfff9e0f5,
	0xfffa1a3d,
	0xfff8e266,
	0xfffc1763,
	0xfffffa99,
	0x00002992,
	0x000c37c6,
	0x0000f7c1,
	0xfff86767,
	0x000456e2,
	0xfff019e0,
	0x00060334,
	0x0000081e,
	0x00048d74,
	0x0009d252,
	0x000c5338,
	0x0005b8c1,
	0x000696d7,
	0xfffff476,
	0xfff96f32,
	0xfffd97c6,
	0xfff36129,
	0xfff74a2e,
	0xffffe58a,
	0x000980b7,
	0x000889f6,
	0x000bda2e,
	0xfff402e5,
	0xfff76ae5,
	0xfff929a7,
	0xfffd4380,
	0x000be5e9,
	0xfffd4d83,
	0xfff6c4fd,
	0xfff7dbd3,
	0xfff93cf0,
	0x00000317,
	0xffffd6dc,
	0x00024ddf,
	0x000037e5,
	0xfffe8c99,
	0xffff3eb3,
	0x0003097c,
	0x00012e7d,
	0xfffffa8f,
	0x000059e0,
	0x000310f5,
	0x000251a9,
	0x0000c3ea,
	0x00018dd9,
	0xfffff067,
	0xffffb702,
	0xfffef711,
	0xfffd9ba7,
	0xfffe0687,
	0x000036fb,
	0x0001cc1e,
	0x00018b72,
	0x000243af,
	0xfffda1e6,
	0xfffe64d2,
	0xfffeb57b,
	0x0000919d,
	0x00024732,
	0x00001240,
	0xfffeafba,
	0xfffdc0d2,
	0xfffeefbe,
	0xfffffc50,
	0xffffe96a,
	0x000f3db2,
	0x0002a2f6,
	0xfff6de2f,
	0xfffa65a4,
	0x0004041b,
	0xfffecb2c,
	0xfffff5d2,
	0x00064dc8,
	0x000aaed1,
	0x000f5f86,
	0x00075f72,
	0x0009cb89,
	0xffffe193,
	0xfff7a87f,
	0x00039373,
	0xfff04146,
	0xfff2c1b6,
	0x000041d7,
	0x000bfabe,
	0x000b05b0,
	0x000ecf18,
	0xfff22bdb,
	0xfff452d3,
	0xfff86ed6,
	0x00021738,
	0x000edd73,
	0xfff85d6f,
	0xfff4954d,
	0xfffd3810,
	0xfff7b224,
	0xfffff4b6,
	0xffffffa2,
	0xfffff950,
	0xfffffe67,
	0x000004eb,
	0x0000016f,
	0xffffffa2,
	0x000000e6,
	0xffffffe5,
	0xfffffc8d,
	0xfffffd08,
	0xfffff93b,
	0xfffffc7e,
	0xfffffb2d,
	0xffffffec,
	0x000004a4,
	0xfffffe29,
	0x000006f2,
	0x000006c0,
	0x0000002c,
	0xfffff90f,
	0xfffff973,
	0xfffff996,
	0x0000057f,
	0x000006df,
	0x000003de,
	0x00000055,
	0xfffff98b,
	0x00000261,
	0x000006cc,
	0x00000133,
	0x0000048d,
	0xfffffffa,
	0xffffd867,
	0x000ee441,
	0xfffee0ed,
	0xfff6be89,
	0xfffca11f,
	0x000378aa,
	0x0007599d,
	0xfffff11c,
	0x000191bd,
	0x000df9e0,
	0x000f0bca,
	0x00050686,
	0x0008903b,
	0xffffbda0,
	0xfff9b088,
	0xfffa09d7,
	0xfff091fc,
	0xfff3e083,
	0x00005e92,
	0x000d4d07,
	0x000b92d3,
	0x000e6dae,
	0xfff1d7be,
	0xfff3f7b6,
	0xfff83172,
	0x00048a5b,
	0x000e80a9,
	0xfffd78db,
	0xfff3cbf9,
	0xfff5a26a,
	0xfff9ab93,
	0xfffff72f,
	0xfffff2c9,
	0x0004db87,
	0x000202d3,
	0xfffbf5cc,
	0xffffcb2b,
	0xffff70b9,
	0xfffe6e9c,
	0xfffff9bc,
	0x00035fd2,
	0x00059222,
	0x0004e4a3,
	0x00035fec,
	0x00045fd8,
	0x000001cc,
	0xfffd4558,
	0x00025820,
	0xfffaed02,
	0xfffb0078,
	0x00000817,
	0x0004d871,
	0x00049a22,
	0x0004c49c,
	0xfffb4a0b,
	0xfffb5aec,
	0xfffc7904,
	0xffff5d40,
	0x0004cc83,
	0xfffea398,
	0xfffbf091,
	0xfffee088,
	0xfffbee5d,
	0xfffffd8a,
	0xffff9233,
	0xffffdd4d,
	0x00000c9b,
	0xffffe2ab,
	0x00008544,
	0x00002bd4,
	0x00003695,
	0xffffd5ce,
	0x00000829,
	0x00006950,
	0xffffdccb,
	0x000054fa,
	0x000014d1,
	0xffff9c2b,
	0x0000509a,
	0xffffd601,
	0x00001ecf,
	0xfffff537,
	0x0000b6dc,
	0xfffff229,
	0xfffff805,
	0xffffdc69,
	0xfffff7cf,
	0x00000317,
	0xfffff8b2,
	0x00004991,
	0xffffdc78,
	0x000083e9,
	0x00002871,
	0xffffb9d9,
	0xfffffad6,
	0xfffff67f,
	0x00002232,
	0x0011beca,
	0xfff65e9e,
	0x000304b3,
	0xfff92679,
	0xfff5c0ed,
	0x000060a5,
	0x00000031,
	0x000397a4,
	0xfffd296f,
	0x00123a77,
	0xfff91b36,
	0x00044a33,
	0xffffdcb8,
	0xfff60bde,
	0x00023874,
	0xffed4e54,
	0xfff3c68f,
	0xfffffefe,
	0x000ba3c0,
	0x0009f630,
	0x0010b61c,
	0xfff99751,
	0xfff4c2de,
	0x000252e1,
	0x00094304,
	0x0010ddc5,
	0xffeaac8c,
	0xfff354e4,
	0x0001dfd0,
	0xfffb05e2,
	0x00000997,
	0xffff6ee8,
	0x000a9c14,
	0xfffd4f22,
	0xfffd41ef,
	0xfffd899d,
	0x00009f20,
	0x000439f6,
	0xffffbfe0,
	0xffff214d,
	0x0009a515,
	0x000abaa2,
	0x0000800a,
	0x0002bf8d,
	0xffffa264,
	0xfffc3533,
	0xfffcc506,
	0xfff4fe51,
	0xfffb5f6e,
	0x0000c024,
	0x0005619d,
	0x00039e93,
	0x000a3bce,
	0xfff5bf70,
	0xfffc3064,
	0xfffe20bb,
	0x0003d832,
	0x000a4950,
	0x000050ed,
	0xfffa396a,
	0xfffa9871,
	0xffff70ad,
	0xfffff0c9,
	0xffffff38,
	0xffffe511,
	0xfffff5ab,
	0x0000174a,
	0x0000081f,
	0xfffff907,
	0xfffffb99,
	0xffffff96,
	0xffffec71,
	0xffffe6bb,
	0xffffe4e6,
	0xffffeb4e,
	0xffffe818,
	0xffffff44,
	0x00001505,
	0xfffffd1c,
	0x00001b7c,
	0x000019de,
	0xfffffe90,
	0xffffe5f0,
	0xffffe751,
	0xffffe58e,
	0x00001a3b,
	0x0000196e,
	0x000016de,
	0x00000112,
	0xffffe57f,
	0x000010a3,
	0x000018fe,
	0x000012be,
	0x00001669,
	0xffffffe4,
	0xffff9000,
	0x00100e91,
	0xfffc976d,
	0xfff7de2a,
	0x0002b767,
	0x000fd354,
	0x000c96dc,
	0xffffcdbe,
	0xfffc2d02,
	0x000e6698,
	0x00103930,
	0xffffe4be,
	0x000acd30,
	0xffff7d8a,
	0x001133f3,
	0xfff2f592,
	0xffef636a,
	0xffecd657,
	0x0000cf95,
	0x000c19cd,
	0x0009e533,
	0x000f82b0,
	0xfff099fc,
	0xfff4e386,
	0xfff8dc42,
	0x000c6a9e,
	0x000f99f1,
	0xfffc60f0,
	0xffff674f,
	0xfff16efa,
	0xfffb3bf2,
	0xfffff2c7,
	0xffffdd9a,
	0x001222ac,
	0x00037147,
	0xfff3e794,
	0xfff9cb49,
	0x000767e7,
	0x00001728,
	0xfffff1bc,
	0x00079b35,
	0x000f2fa2,
	0x001248c5,
	0x0009e4ae,
	0x000ca3ea,
	0xffffd456,
	0xfff6815f,
	0x00039905,
	0xffed45bc,
	0xffeedd26,
	0x00005453,
	0x000f62cb,
	0x000e5cee,
	0x0011a508,
	0xffeebddb,
	0xfff0c0d0,
	0xfff5bc21,
	0x0002e96e,
	0x0011b5d5,
	0xfff52d95,
	0xfff1bd10,
	0xfff9354c,
	0xfff51ec4,
	0xfffff255,
	0xffffb9ef,
	0xfffffce7,
	0x000030c8,
	0xffffb628,
	0x00006106,
	0x00000b26,
	0x00002669,
	0xffffde1e,
	0x00002cbc,
	0x0000823d,
	0xfffffc38,
	0x0000920d,
	0x0000396c,
	0xffffaf29,
	0x00002dd5,
	0xfffff3f1,
	0x00000072,
	0xffffce28,
	0x000079a7,
	0x0000198f,
	0x00001f35,
	0xfffffb81,
	0xffffde03,
	0xffffda41,
	0xffffd2a0,
	0x00004999,
	0xfffffb60,
	0x00003734,
	0xfffffded,
	0xffffbba3,
	0xffffd240,
	0xfffff9b2,
	0xffff3e98,
	0x000de168,
	0xfff97494,
	0xfffd1614,
	0xfff97e75,
	0x00067ae4,
	0x000a0f41,
	0xffffc192,
	0xfffb01b2,
	0x000bddbd,
	0x000e0748,
	0xfffbbb7c,
	0x00008d4a,
	0xffffa8b7,
	0xfff75070,
	0xfff58fad,
	0xfff1b1d0,
	0xfffff43b,
	0x000114fb,
	0x00063259,
	0x00028e34,
	0x000d640c,
	0xfff2fc5c,
	0xfffdcc5f,
	0xfffe6c40,
	0x00064dd0,
	0x000d7459,
	0x000f5a6c,
	0xfff6bc19,
	0xfff5eb00,
	0x0003edd8,
	0xffffec9e,
	0xfffff84e,
	0xffff6ebb,
	0xffffddbd,
	0x00007677,
	0x00001b76,
	0xfffffb9e,
	0x00001509,
	0xfffffdbe,
	0xffff9513,
	0xffffaa66,
	0xffff6d8d,
	0xffff94ef,
	0xffff865b,
	0x0000003c,
	0x00007c8b,
	0xffffc6a7,
	0x00009515,
	0x000091ec,
	0x00000b3b,
	0xffff6c84,
	0xffff71c9,
	0xffff7272,
	0x00007f06,
	0x000092eb,
	0x0000693d,
	0x000002b6,
	0xffff71e8,
	0x000057f3,
	0x000092bf,
	0x000020f1,
	0x000077e9,
	0xffffff60,
	0xffff4a44,
	0x000cbf00,
	0xfff98c4c,
	0x000290e5,
	0xfffc43df,
	0x00090c35,
	0x0008d1dc,
	0xffffc9b3,
	0xfff8a009,
	0x000af22f,
	0x000cdcbe,
	0xfffb26bc,
	0xffff88f5,
	0xffffa60c,
	0x000631ef,
	0xfff71957,
	0xfff2dcae,
	0xfffc6c14,
	0x0000fffb,
	0xffffc3de,
	0xfffdedb6,
	0x000c5816,
	0xfff3ce78,
	0x0001964a,
	0x0002923e,
	0x000a1af6,
	0x000c61ae,
	0xfffbd7cc,
	0x0001ea90,
	0xfff838f1,
	0x000431b7,
	0xfffff792,
	0xffff3856,
	0x000e43db,
	0xfffa69bd,
	0xfffef0f3,
	0xfffc0b61,
	0x000b4288,
	0x00097c81,
	0xffffc4c3,
	0xfff9ef77,
	0x000bbcf6,
	0x000e66fd,
	0xfffc25d5,
	0x00027297,
	0xffff9173,
	0x000494b6,
	0xfff6a77e,
	0xfff14958,
	0xfff9e978,
	0x000123e0,
	0x00042037,
	0x00013d6e,
	0x000dcd62,
	0xfff26c5c,
	0xfffe4b73,
	0xffff44ee,
	0x0009e5d3,
	0x000ddad7,
	0xffffdc2b,
	0xfffe6c87,
	0xfff58f71,
	0x00027d5d,
	0xffffef3a,
	0xffff9c24,
	0xffffd27b,
	0x00000d15,
	0x000000f0,
	0x000081c2,
	0x000044f4,
	0x00003d3e,
	0xffffd9a8,
	0x00000c52,
	0x0000576b,
	0xffffd242,
	0x00004d88,
	0x000008fc,
	0xffff9b51,
	0x000051cc,
	0xffffce5f,
	0x00002a0b,
	0xfffffcfd,
	0x0000b167,
	0xffffdea6,
	0xffffe646,
	0xffffd16a,
	0x00000a63,
	0x00001305,
	0x00001301,
	0x00003724,
	0xffffd1a2,
	0x00006c9f,
	0x00003628,
	0xffffc10d,
	0x000006cb,
	0xfffff698,
	0xffffe17c,
	0x0002385b,
	0x0000bea6,
	0xfffe64e5,
	0x000022a8,
	0x0000dd90,
	0xffff7a99,
	0xffffef57,
	0x000177bd,
	0x00038603,
	0x00023dc9,
	0x000171fa,
	0x0001f88d,
	0xffffeff4,
	0xffff27c7,
	0x0000f763,
	0xfffda61d,
	0xfffdc796,
	0x000021a0,
	0x0001f778,
	0x0001d2f5,
	0x00022c39,
	0xfffd811a,
	0xfffe28a9,
	0xfffea00f,
	0xffffddf6,
	0x00023146,
	0xffffe9cf,
	0xfffe7ea3,
	0xfffec7b2,
	0xfffe5664,
	0xfffffca0,
	0xffff58a8,
	0x000f2f68,
	0xfff9d40c,
	0xfffee393,
	0xfffbddc0,
	0x000b56f6,
	0x000a3000,
	0xffffce54,
	0xfff994ab,
	0x000c25f2,
	0x000f54cd,
	0xfffbbc7e,
	0x00022624,
	0xffffb4e2,
	0x00036c0c,
	0xfff5b3ca,
	0xfff05ba1,
	0xfffa99c1,
	0x0000e9f8,
	0x00042978,
	0x00012c06,
	0x000eae88,
	0xfff1b7e6,
	0xfffe7bbe,
	0xffff5cd3,
	0x000a02c3,
	0x000ebcbf,
	0x000209c2,
	0xfffdc67a,
	0xfff58697,
	0x0002f94a,
	0xfffff2c3,
	0xffffadb3,
	0x000ad92c,
	0xffffdb08,
	0xfffbbb90,
	0xfffe2a9e,
	0x0004e69e,
	0x00039cef,
	0xffffd49c,
	0xffffb19c,
	0x000b3e5b,
	0x000af148,
	0x0001fae8,
	0x0004f8ec,
	0xffffcb73,
	0x000149c8,
	0xfffd6ae5,
	0xfff4cc01,
	0xfff8bb36,
	0x000060ce,
	0x0005ef8b,
	0x0004bf92,
	0x000a88fa,
	0xfff4dc5a,
	0xfffaf710,
	0xfffc66c0,
	0x0003c257,
	0x000a94a3,
	0xfffaa170,
	0xfffbfb68,
	0xfff8c73d,
	0xfffce440,
	0xfffff7e7,
	0x00002f2e,
	0x000eb0dc,
	0x0004f407,
	0xfff280ff,
	0x00026e89,
	0xfffaa582,
	0x0003b8ad,
	0x000007cf,
	0x0008b624,
	0x000fca9b,
	0x000ecbb3,
	0x000724bf,
	0x000b16e1,
	0xffffe302,
	0xfff4fef4,
	0xfffedee0,
	0xfff0e520,
	0xfff4191b,
	0xffffef2b,
	0x000da9e7,
	0x000d1ff0,
	0x000e4e24,
	0xffeffcf2,
	0xfff325fe,
	0xfff39ce8,
	0xfff79fdf,
	0x000e5da3,
	0x0003f4dc,
	0xfff2b8bd,
	0xfff64f49,
	0xfff4fe7d,
	0xffffff3e,
	0xffff9c26,
	0xffffd2f8,
	0x00000e73,
	0xfffff9e0,
	0x000082c4,
	0x00003a69,
	0x00003a81,
	0xffffd9b6,
	0x0000085b,
	0x000058f0,
	0xffffd2ae,
	0x00005204,
	0x00000b55,
	0xffff9c8a,
	0x00005530,
	0xffffd197,
	0x00002988,
	0xfffffb55,
	0x0000afeb,
	0xffffe492,
	0xffffeab3,
	0xffffd1f2,
	0x00000961,
	0x00000ead,
	0x00000d8b,
	0x000040e2,
	0xffffd21c,
	0x000069ec,
	0x00003259,
	0xffffc263,
	0x000004cd,
	0xfffff6c5,
	0xffff4d27,
	0x00165e6b,
	0xfffa88f0,
	0xfff41f29,
	0xfff558f2,
	0x001503f3,
	0x000827f9,
	0xffffbf45,
	0xfffc7808,
	0x000e265b,
	0x0016935b,
	0x00010f7a,
	0x000acf00,
	0xffffa443,
	0xfffb1519,
	0xfff791cb,
	0xffe8d4ba,
	0xfff21a34,
	0x0000fc05,
	0x0011c90a,
	0x000c9abe,
	0x0015b05b,
	0xffec51d5,
	0xfff2a4c1,
	0xfff70f66,
	0x00101f12,
	0x0015c478,
	0x000dc76e,
	0xfff19e15,
	0xfff4354a,
	0xfffe6ab9,
	0xffffe9d3,
	0xffff467d,
	0x000cd7bf,
	0xfffd5bfb,
	0xfffdecf6,
	0x0001074d,
	0x000c8bc0,
	0x0006441d,
	0xffffcd61,
	0xfffc402a,
	0x00091ecc,
	0x000cf254,
	0xffff8427,
	0x00068bee,
	0xffff9527,
	0x000f4ca5,
	0xfffa335e,
	0xfff2c12c,
	0xfff1ccc8,
	0x000109ea,
	0x0004a98c,
	0x000359ec,
	0x000c7754,
	0xfff4094d,
	0xfffb903e,
	0xfffdd8b7,
	0x0009f183,
	0x000c80b4,
	0xfff44c1f,
	0x0004b4fe,
	0xfff8f2ad,
	0xfffe77af,
	0xfffffa69,
	0xffffe5c0,
	0x00114538,
	0x0003246d,
	0xfff49ddc,
	0xfffab1cb,
	0x00005d9a,
	0xfffd33e8,
	0xfffffee9,
	0x000a4ed0,
	0x000a3e7f,
	0x00117b2e,
	0x0008d09a,
	0x000bb5cf,
	0x00001c39,
	0xfff10922,
	0x0005ad81,
	0xffee0575,
	0xfff1f9ac,
	0x000004ad,
	0x000f85a6,
	0x000ebe5c,
	0x0010b51e,
	0xfff1d0aa,
	0xfff1138a,
	0xfff666dc,
	0x000090db,
	0x0010cd29,
	0xfffdddae,
	0xffefdc85,
	0xfffd4556,
	0xfff49bfb,
	0xfffffd3b,
	0xffff3e35,
	0x000e7376,
	0xfffcc8ad,
	0xfffa7453,
	0xfffaac49,
	0x00096c04,
	0x00070e7f,
	0xffffbfdf,
	0xfffe8030,
	0x000bfc4d,
	0x000e9ad0,
	0x00008a57,
	0x0005cdaf,
	0xffff989e,
	0xfffdb568,
	0xfffa1e1a,
	0xfff114d6,
	0xfff713fa,
	0x000116e6,
	0x00097ac4,
	0x0006807e,
	0x000df5f8,
	0xfff29294,
	0xfff8fe56,
	0xfffb86f0,
	0x000712a0,
	0x000e07b4,
	0xffffa35b,
	0xfff81688,
	0xfff67d7d,
	0xfffe8483,
	0xffffec3d,
	0xffffffed,
	0xffffff04,
	0xffffffb9,
	0x000000d3,
	0x000000ac,
	0x00000040,
	0x0000002c,
	0x00000002,
	0xffffff0c,
	0xffffff5c,
	0xffffff03,
	0xffffff0e,
	0xffffff15,
	0x00000005,
	0x0000011d,
	0xffffff96,
	0x000000fe,
	0x000000ff,
	0x00000011,
	0xffffff05,
	0xffffff0a,
	0xffffff05,
	0x000000d7,
	0x000000fc,
	0x000000c8,
	0x0000002f,
	0xffffff05,
	0x000000a6,
	0x00000106,
	0x0000005b,
	0x000000e9,
	0x00000001,
	0xffffffde,
	0x00000376,
	0xfffffdd9,
	0x0000046b,
	0xfffff97e,
	0xfffffdc5,
	0xffffff3d,
	0xffffffed,
	0xfffffea5,
	0xfffffa2a,
	0x00000368,
	0x000000ce,
	0xfffffce8,
	0xffffffc9,
	0xffffff19,
	0xfffffea5,
	0xfffffcbf,
	0xffffffb0,
	0xffffffc8,
	0x00000095,
	0xffffffa4,
	0x00000388,
	0x00000466,
	0x00000059,
	0x0000051c,
	0x000003b8,
	0x00000387,
	0xfffffdb2,
	0xffffff6d,
	0x00000383,
	0x000000f9,
	0xfffffffe,
	0xfffff8e8,
	0x000116f2,
	0xfffe1b4e,
	0x00000f7e,
	0x00001199,
	0x00039504,
	0x0000a381,
	0x00000a0d,
	0xffffb0fe,
	0x000793ad,
	0x00012c7d,
	0xffff39d3,
	0xfffff963,
	0x00003524,
	0xffff65ac,
	0xffff196c,
	0xfffef82b,
	0xffff040c,
	0x00001ffb,
	0x0000eaf6,
	0x0000b1b9,
	0x00010d1b,
	0xfffb1b13,
	0xffff4a3b,
	0x0000f77b,
	0x000169f5,
	0x000108e0,
	0x0001886c,
	0xffff5d01,
	0xffff3fc1,
	0x00009116,
	0xffffd03e,
	0x00002934,
	0xfffd788f,
	0x0001300b,
	0x000028cc,
	0x00034fa6,
	0xfffec2de,
	0x00007094,
	0x00000959,
	0xffffcad6,
	0x00017d00,
	0xfffd727a,
	0xffffe1ae,
	0xffff14d6,
	0x00000dc1,
	0x00013b12,
	0xffffb82f,
	0x0002b1e1,
	0x0001adb9,
	0xffffcdf2,
	0xfffe9678,
	0xffff0516,
	0xfffd8f0c,
	0x000087f6,
	0x00011bb2,
	0xffffe55b,
	0xfffd6ccb,
	0xfffd882c,
	0x0000db8c,
	0x00012430,
	0xffff7e9e,
	0x00006311,
	0xffffff96,
	0x00005865,
	0xfffd27f5,
	0x000243b7,
	0xfffcfc60,
	0x00027e7a,
	0xfffbe3f0,
	0xfffef759,
	0x00001ab5,
	0x00028c86,
	0xfffe26f6,
	0xfffd228d,
	0x000203d9,
	0x0001a3ed,
	0x000021cc,
	0xfffc3d59,
	0x000175ed,
	0x0002fab3,
	0xfffef0f5,
	0xffff8bf9,
	0x0002cae5,
	0x0003cc88,
	0xfffd3d59,
	0x00022f76,
	0xfffc239e,
	0xfffd1214,
	0xfffb2420,
	0xfffd38fb,
	0xffff2c6e,
	0xfffbfd3e,
	0x00007f5d,
	0xfffccc2b,
	0x000008aa,
	0xffffef50,
	0x0002821b,
	0x000437d0,
	0xffff8106,
	0xfffe7bc8,
	0xfffe221a,
	0xfff1b5df,
	0xffffffbf,
	0x0008f909,
	0xfffa6727,
	0x00029de1,
	0x00049094,
	0x00042bc6,
	0x00000f2f,
	0xfffa6fc2,
	0x001060af,
	0xfffd5d52,
	0xfffa1ca2,
	0x0000095d,
	0x0003c57d,
	0x00044b1f,
	0x0002518c,
	0x0001c91a,
	0xfffb3a0f,
	0xffffc20d,
	0x000020c8,
	0x000253c7,
	0xfff52d30,
	0xfffc2e34,
	0x000ecc48,
	0xfffa842e,
	0xfffff3d4,
	0x00004d4a,
	0x001542be,
	0xfffde2b4,
	0xfff13257,
	0xffffb978,
	0xff7b9bb7,
	0xffebf2ce,
	0x0000270f,
	0x0019c254,
	0xffcc5bc1,
	0x00174f70,
	0x000a5244,
	0x000c8733,
	0xffffc76f,
	0xffdab16f,
	0x001b7708,
	0xffe6b676,
	0xffe91b64,
	0x000016bb,
	0x0017e245,
	0x001bbcf1,
	0x00121403,
	0xfffa441c,
	0xffe39ed0,
	0xfff2bdb3,
	0xfffbef60,
	0x0012ea21,
	0xfff46acf,
	0xffdf4866,
	0x00196db2,
	0xffe4dd54,
	0x00003d0c,
	0xfffff225,
	0x0001a79d,
	0x00010f48,
	0xffff7ba4,
	0xffff37d8,
	0xffef48ea,
	0xfff6c03d,
	0xfffffb19,
	0x000395ac,
	0xfff63520,
	0x0001b085,
	0x00046233,
	0x0001422b,
	0xfffffbd2,
	0xfffca11e,
	0x000a8874,
	0xfffe3ebf,
	0xfffd4b72,
	0x00000bbf,
	0x00024186,
	0x0002949d,
	0x0001835b,
	0x0000e496,
	0xfffd29ea,
	0x000037e0,
	0x00034428,
	0x00017b74,
	0xfff991e0,
	0xfffd3fed,
	0x000badec,
	0xfffd8115,
	0x00000566,
	0xfffffffe,
	0xffffffec,
	0xffffffe8,
	0x00000049,
	0x00000002,
	0x00000051,
	0x00000072,
	0x00000000,
	0xffffffaf,
	0x0000007d,
	0xffffffe4,
	0xffffffd4,
	0x00000000,
	0xffffffff,
	0x00000067,
	0xffffffaf,
	0x0000002a,
	0x0000003f,
	0xfffffff9,
	0xffffffc1,
	0xffffffba,
	0xffffffff,
	0xffffffe3,
	0x0000005a,
	0x0000002f,
	0x0000003f,
	0xfffffffc,
	0x00000067,
	0x00000063,
	0xffffffa8,
	0x00000036,
	0x00000000,
	0xffffef3c,
	0xfffea8e2,
	0x00048d7f,
	0xfffdf08f,
	0x0006378a,
	0xfff98076,
	0xfffa15cc,
	0xfffff769,
	0x000663fb,
	0xfffd3cc1,
	0xfffea05d,
	0x0002f923,
	0x00027326,
	0x00000a16,
	0xfffec2db,
	0x0008d5e0,
	0x000178ce,
	0xfffe69d6,
	0x000006ad,
	0x00007344,
	0x00015456,
	0xfffeb4ba,
	0x00007fe5,
	0xfffeaf6d,
	0xfffdd909,
	0xfff9e83c,
	0xfffeac15,
	0xffff372d,
	0xfffff21f,
	0x0002ca69,
	0xfffc501e,
	0x000001d8,
	0xffffe19f,
	0x000f5e95,
	0xffef5dd0,
	0x0004e0b5,
	0xfff46c7b,
	0xffe2ab79,
	0x000c6391,
	0xfffff893,
	0x0003353c,
	0xffcd62cf,
	0x0010e1b0,
	0xfff9906c,
	0x0001bc0a,
	0x00004c9b,
	0xfff09409,
	0xfff8bec8,
	0xffedce0f,
	0xfff22dd7,
	0x00001fa4,
	0x000c0e43,
	0x0010f423,
	0x000afd40,
	0x00047462,
	0xfff23231,
	0x0001d656,
	0x0016fc57,
	0x000944e7,
	0xffeee838,
	0xffeb995b,
	0xfffbc9b3,
	0xfff83de4,
	0xffffa8cd,
	0xfffff5ef,
	0x0000b113,
	0xfffe3d07,
	0xffffdc7c,
	0x00006baf,
	0x00040485,
	0x0000ea1c,
	0x000009bd,
	0xffff7379,
	0x00088fe0,
	0x0000c3b9,
	0xffffa7b9,
	0xffffc4c6,
	0x0000340e,
	0xffffd57d,
	0xfffecc22,
	0xffff6a59,
	0xffff5454,
	0x000026da,
	0x00009b59,
	0x00006906,
	0x0000afe5,
	0xfffac5de,
	0xffffa176,
	0x0000f7dc,
	0x00014134,
	0x0000a96e,
	0x00022393,
	0xffffc91e,
	0xfffee02c,
	0x0000d128,
	0xffffce14,
	0x000052c1,
	0xfff6b521,
	0x00048100,
	0xfffd5c85,
	0x0008a88b,
	0x000399ca,
	0x000321df,
	0x0000107c,
	0xfffca966,
	0x000c1a41,
	0xfff668f6,
	0x0006c898,
	0xfffd677e,
	0x00002a4c,
	0x0008c394,
	0xfffc86a4,
	0x000a347b,
	0x00067a92,
	0xffff8d77,
	0xfff9ce0e,
	0xfffab7c2,
	0xfff76dc6,
	0xfffdc4f4,
	0x000651d1,
	0xfffe433d,
	0xfffa0018,
	0xfff748c8,
	0x000a19d2,
	0x000822ca,
	0xfffa849e,
	0x00030262,
	0x00000193,
	0xfffffab0,
	0x0000572e,
	0x000295e1,
	0xfffd0957,
	0x0002fc0a,
	0xfffb86cd,
	0xfffe60fc,
	0xffffef5b,
	0x00038c61,
	0xfffd5a2a,
	0x00005a52,
	0x00027980,
	0x00034536,
	0xffffd514,
	0x0001ac26,
	0x0002b2b5,
	0xffffae89,
	0xfffbde59,
	0x000022a9,
	0x0002c2ec,
	0x00035dd1,
	0x00004c23,
	0xffff8b6f,
	0xfffc5d05,
	0xfffd1580,
	0xfffe4251,
	0x00004b40,
	0xfffc161a,
	0xfffee97a,
	0x000023c4,
	0xfffbc791,
	0x00000679,
	0x00000005,
	0x000001ee,
	0xffffffe4,
	0x0000005a,
	0xfffffd8f,
	0xfffffc31,
	0x00000077,
	0x00000001,
	0x0000025a,
	0xfffffe83,
	0x0000020f,
	0x00000030,
	0x000003cc,
	0x00000006,
	0xfffffc88,
	0x00000033,
	0xfffffda7,
	0xfffffdf3,
	0xffffffd4,
	0x00000251,
	0x0000025c,
	0x000001c1,
	0xfffffdbb,
	0xfffffd4f,
	0x00000046,
	0x00000337,
	0x000001c2,
	0xfffffed1,
	0xfffffcb0,
	0xffffff35,
	0xfffffc78,
	0xffffffff,
	0x000037e4,
	0xfffb3597,
	0x00030ac9,
	0x0000ddec,
	0x000192a2,
	0x0000a863,
	0xfffb13dc,
	0x00001dcf,
	0x00023bff,
	0x00032b0c,
	0xfffb2508,
	0x0003117e,
	0xfffedde1,
	0x0000596a,
	0xffffdc09,
	0x0005ea39,
	0x000521e8,
	0x00024135,
	0xffff865a,
	0xfffd030e,
	0xfffe42dd,
	0xfffb7de2,
	0x000163ec,
	0x0001e193,
	0x0000b0fc,
	0xfffc1af6,
	0xfffb6c4d,
	0xfffbef24,
	0x00022523,
	0x00045a51,
	0xffff81a6,
	0x00000311,
	0xffffed98,
	0x00009aee,
	0x000192b7,
	0x0000d29c,
	0xffff7034,
	0xffec8f0d,
	0xfff2251f,
	0xfffffa39,
	0x0003e10b,
	0xfff49881,
	0x0000a3e2,
	0x000492e8,
	0x0000e250,
	0x00000e60,
	0xfffd75eb,
	0x0010a68f,
	0xffff3d21,
	0xfffdddeb,
	0xfffff2d6,
	0x00014c57,
	0x00017179,
	0x00007df3,
	0x000257bc,
	0xfffe23ad,
	0x0001838b,
	0x0005f02f,
	0x00007178,
	0xfff6f7e6,
	0xfffe5ad5,
	0x000eead1,
	0xfffe54fd,
	0x00000c90,
	0xffffeff4,
	0x00008d7f,
	0xfffe3132,
	0xffffcd09,
	0x00009390,
	0x00045692,
	0x00010518,
	0x000008e7,
	0xffff50f6,
	0x00095da6,
	0x00009f81,
	0xffffbf66,
	0xffffaf49,
	0x000035ed,
	0x000006ba,
	0xfffeab20,
	0xffff9540,
	0xffff7145,
	0x00002e80,
	0x00007ed8,
	0x00004c5a,
	0x000090d1,
	0xfffa823b,
	0xffffc550,
	0x00011277,
	0x0001479a,
	0x00008907,
	0x00027f11,
	0xfffff772,
	0xfffeb46f,
	0x0000f734,
	0xffffcb36,
	0xfffff09f,
	0xfffcf640,
	0x00030bc3,
	0xfffecf35,
	0x00041293,
	0xfffe0d54,
	0xfffe03c3,
	0xffffec20,
	0x0002f10b,
	0x00012560,
	0xfffceb15,
	0x000432b1,
	0x00016604,
	0xffffcb0d,
	0x0003ded4,
	0x00029337,
	0x00034be8,
	0xfffddd63,
	0x000034bf,
	0xffff088a,
	0x0000abb6,
	0xfffd1fe7,
	0x000052dd,
	0xffff3376,
	0xfffebc9f,
	0xfffce2af,
	0xfffd16bb,
	0xfffa71ac,
	0x0002ed34,
	0x0001585a,
	0xfffbfe25,
	0x00000551,
	0xffffff58,
	0x000005bd,
	0xffffff94,
	0xfffffdba,
	0xffffea2d,
	0xfffffb08,
	0xfffffb70,
	0xffffffe6,
	0x0000081f,
	0xfffff59c,
	0x00000517,
	0x0000019c,
	0x000009d9,
	0xffffff63,
	0xfffff93c,
	0x00000291,
	0xfffffbe9,
	0xfffff9c2,
	0xffffff3e,
	0x0000052c,
	0x00000618,
	0x000007d7,
	0xfffff56a,
	0xfffffbec,
	0x000001c2,
	0x00001120,
	0x0000077e,
	0xfffff7cd,
	0xfffffb9a,
	0x000002dd,
	0xfffff4d7,
	0xffffffe8,
	0x000054a7,
	0xfffce881,
	0x000218ad,
	0xfffcc49e,
	0x0002664b,
	0xfffe8baf,
	0xfffefed4,
	0x000017da,
	0x0001731b,
	0x00026bde,
	0xfffcd8a4,
	0x0003ad15,
	0x0000f808,
	0x000028b5,
	0xffff5e74,
	0x00015911,
	0x000367dc,
	0x00001cf2,
	0xffff8b3c,
	0x000147da,
	0x0001d6dd,
	0xfffd1ee9,
	0xfffff7da,
	0xfffe5314,
	0xfffd42d5,
	0xfffcafef,
	0xfffd1307,
	0x00009785,
	0xfffecbfa,
	0x00000668,
	0xfffe2a7d,
	0x00000ac2,
	0x000041ce,
	0xfffa95b1,
	0x000362de,
	0xfffdfe7f,
	0x0003b786,
	0xfffcd0bd,
	0xfffca918,
	0x00001344,
	0x00030ed9,
	0x00005432,
	0xfffa7e3a,
	0x0004b272,
	0x000030c9,
	0x00002a13,
	0xfffeebda,
	0x0003e8aa,
	0x0005c83e,
	0x00011269,
	0xffff9c2b,
	0xffff72a8,
	0x000103d9,
	0xfffade95,
	0x0002c486,
	0xffff3186,
	0xfffe38a6,
	0xfffa6e1d,
	0xfffad172,
	0xfffdf3f0,
	0x000026f5,
	0x0002f4b1,
	0xfffd35d2,
	0x0000085b,
	0x0000010b,
	0x00016b31,
	0xfffe0cee,
	0x00005262,
	0xffffae8e,
	0x000281fc,
	0x00004cc2,
	0x00000adf,
	0xffffffab,
	0x0005b92b,
	0x00018245,
	0xfffebcee,
	0x0000303b,
	0x0000322c,
	0xfffef69f,
	0xffff79b8,
	0xfffe957a,
	0xfffec157,
	0x000013d2,
	0x00012c53,
	0x0000f4a8,
	0x0001585b,
	0xfffbac2f,
	0xfffef9c1,
	0x0000e6b2,
	0x00017c40,
	0x000156b9,
	0x0000c29b,
	0xfffef642,
	0xffffb0b9,
	0x000039f5,
	0xffffd546,
	0x00003e22,
	0x000b5ada,
	0xfffef0e2,
	0xfffcd096,
	0xfffb4eae,
	0xfff3b4e8,
	0xfffbd2f2,
	0x00002401,
	0x00075d01,
	0xfff69413,
	0x000bb1c1,
	0xffff5bc5,
	0x00061d3d,
	0x0000430b,
	0xfff4f66c,
	0x0006460c,
	0xfff3edbe,
	0xfff5c681,
	0xffff7103,
	0x0009addd,
	0x0008f916,
	0x000a79d0,
	0xfffcf410,
	0xfff5ddc3,
	0xfffc5d52,
	0x00022c68,
	0x000a827d,
	0xfff48579,
	0xfff4a0cf,
	0x000633e3,
	0xfff96d6f,
	0x00002481,
	0x00003f95,
	0xfffa5144,
	0x000347f8,
	0xfffe4194,
	0x00035390,
	0xfffcea06,
	0xfffcd250,
	0x0000131a,
	0x0002ab17,
	0x0000d32a,
	0xfffa39fa,
	0x0004b297,
	0xfffffb97,
	0x0000222f,
	0xffffd1d9,
	0x0003aafc,
	0x0006151c,
	0x0000feb3,
	0xffffa5bd,
	0xffff092f,
	0x00009ad5,
	0xfffa9dc1,
	0x000278a5,
	0xffff8993,
	0xfffe794d,
	0xfffaadf5,
	0xfffa8f70,
	0xfffce65b,
	0x0000cce2,
	0x0002d70a,
	0xfffd6302,
	0x0000094f,
	0x00003209,
	0x0000942f,
	0x00024cea,
	0xfffb252b,
	0x00016242,
	0xfff981f2,
	0xfffdc6ca,
	0x00000f14,
	0x0004786b,
	0xfffcd8f5,
	0x00009969,
	0x000489aa,
	0x00040578,
	0x00000782,
	0xfffb0406,
	0x00031654,
	0xffff6eac,
	0xfffb66bd,
	0xffffcb05,
	0x0005ff52,
	0x0006dc80,
	0x0000862f,
	0x00006f76,
	0xfff8facc,
	0xfffbccd1,
	0xfffd2512,
	0x000085f2,
	0xfffc749c,
	0xfff9922b,
	0x00020031,
	0xfffa4db6,
	0x000005f3,
	0xffffa2a4,
	0x00001ad7,
	0xffff72c6,
	0x0002ffe9,
	0xfffe0af7,
	0xfffa5998,
	0xfff4d0be,
	0xffffe12a,
	0x00065b82,
	0xfff6fd3f,
	0x000034de,
	0x0001413b,
	0x00003b2c,
	0xfffffd92,
	0xfff876f8,
	0x000d4662,
	0xffffcae2,
	0xfffe48ed,
	0x00005db3,
	0x0000da43,
	0x00011712,
	0xffffee57,
	0x00044428,
	0xfffe663b,
	0x00032fc1,
	0xffffbf5d,
	0xffffee8a,
	0xfffbec3e,
	0xfffd9b80,
	0x000c378d,
	0xfffeca21,
	0xfffff560,
	0x000000f4,
	0x00015ec8,
	0xfffe0a66,
	0x0000454c,
	0xffffbf2b,
	0x00029fce,
	0x00005fab,
	0x00000ae6,
	0xfffff0e0,
	0x00060e25,
	0x000175a9,
	0xfffeddc6,
	0x000026c0,
	0x0000321c,
	0xffff0958,
	0xffff6476,
	0xfffea4a5,
	0xfffecad7,
	0x00001472,
	0x000123d9,
	0x0000ec06,
	0x00014d70,
	0xfffb7ae2,
	0xffff0552,
	0x0000e808,
	0x00017e3a,
	0x00014b43,
	0x0000e90f,
	0xffff065e,
	0xffff987d,
	0x00004903,
	0xffffd4e0,
	0x00004526,
	0xfff7d0d9,
	0x0001b341,
	0x000512a3,
	0x0005cc9b,
	0xfff42e95,
	0xfff9f382,
	0x0000222c,
	0x00018eb0,
	0xfffc08a6,
	0xfff7c106,
	0xffff7537,
	0xfffb15c0,
	0x00002791,
	0x00006744,
	0x000558c8,
	0x00089d05,
	0x0006afa0,
	0xffffab25,
	0xfff8bf35,
	0xfffa299c,
	0xfff81112,
	0x00064d50,
	0x00066914,
	0x00044981,
	0xfff8ed49,
	0xfff80546,
	0xffff61f3,
	0x0005dd4d,
	0x0009027d,
	0x000243b8,
	0x000004e0,
	0x0000618c,
	0xfffb4753,
	0x0001ee44,
	0xffff6037,
	0x00008f67,
	0xffff3612,
	0xfffd393d,
	0x00002c5f,
	0x0001513a,
	0x0003a4e8,
	0xfffb384f,
	0x0003a50b,
	0xfffe905d,
	0x00006fba,
	0xfffcb8e2,
	0x00030c20,
	0x00051601,
	0x00031361,
	0xffff4fb6,
	0xfffe9919,
	0xffff948d,
	0xfffb8b32,
	0x00011c06,
	0x0000ac84,
	0xffffbe17,
	0xfffc3ae3,
	0xfffb7bef,
	0xffff0af9,
	0xffff57ee,
	0x0002a086,
	0xffffaf71,
	0x000005bd,
	0xfffff853,
	0x000362d2,
	0x0002ce06,
	0xfffc25e1,
	0x00027487,
	0xffdf59cb,
	0xfffa4428,
	0xfffff636,
	0x00063b22,
	0xfff05633,
	0x00036a1a,
	0x00060011,
	0x00028c39,
	0x000033e8,
	0xfffa2894,
	0x00064681,
	0xfffcb497,
	0xfffbf749,
	0xffffd957,
	0x00043e66,
	0x000516fc,
	0x00031499,
	0xffffc835,
	0xfffb0568,
	0xfffd327e,
	0xfffc7b89,
	0x000309be,
	0xfffca0df,
	0xfffac631,
	0x000c191b,
	0xfffabecf,
	0xffffee15,
	0x000016c3,
	0xfffb6a93,
	0x0003d74a,
	0xfffee756,
	0x0005e13a,
	0xfff957d9,
	0xfffc10ff,
	0x00000113,
	0x00041c4f,
	0xfffcbb83,
	0xfffb5b7e,
	0x0002d2fe,
	0x00009ccf,
	0x000006b2,
	0x000116a6,
	0x000521d5,
	0x0004d3dd,
	0xfffff82e,
	0xffffe019,
	0xffff26f7,
	0x0000fba0,
	0xfffb9207,
	0x000397e8,
	0xffff1ade,
	0xfffea8bf,
	0xfffa33c8,
	0xfffb89d0,
	0xfffb4321,
	0x0000f36d,
	0x00037e17,
	0xfffc771e,
	0x000004dd,
	0xffffffff,
	0x00000002,
	0xffffffb5,
	0x00000011,
	0x0000002a,
	0x00000059,
	0x00000056,
	0x00000000,
	0xffffff9f,
	0x0000002f,
	0x00000001,
	0xffffffba,
	0xffffffde,
	0xffffffff,
	0x0000004e,
	0xffffffab,
	0x00000000,
	0x00000028,
	0x00000006,
	0xffffffd9,
	0xffffffc8,
	0x00000004,
	0xffffffd9,
	0x00000039,
	0x00000004,
	0x00000028,
	0x00000004,
	0x0000003f,
	0x00000038,
	0xffffffd1,
	0x00000047,
	0x00000000,
	0xffff2f66,
	0xffddc0ca,
	0xfffcc847,
	0xfffe70de,
	0xffae89aa,
	0x001d1ad0,
	0xfff68e98,
	0x00000e67,
	0xffd441e5,
	0xffc3b7d7,
	0xffdf8a6d,
	0xfff43ba0,
	0xffe72825,
	0x0001ee24,
	0xfffbf267,
	0xffe3ca1b,
	0x002654b6,
	0xfff989a5,
	0xffff7c06,
	0xfffd77ea,
	0x00036f65,
	0xffe75ceb,
	0x002217e2,
	0xfff27c23,
	0x00058329,
	0x0003e2d2,
	0xffe39268,
	0xffbbaf5f,
	0xffee59f8,
	0x0027defc,
	0x0016aa68,
	0xffffda2b,
	0x0000a4c9,
	0x0009f4cf,
	0x0025dbfc,
	0xffe2c87f,
	0xffdc6150,
	0xfff6dfb9,
	0x00088877,
	0x00001a30,
	0xffec102c,
	0x0013ef6b,
	0x00087810,
	0x0009119a,
	0xfff6f488,
	0x00001162,
	0xfffd15e6,
	0x000ddef4,
	0xfff7aee1,
	0x002fe8a7,
	0xffff77de,
	0xfff86ebf,
	0xfffaa2b0,
	0x0009fa09,
	0xffe2d833,
	0x00107740,
	0xfff32d23,
	0x0050ef29,
	0x000a5688,
	0x00012cd4,
	0xffeda142,
	0xffd6747e,
	0xfffa4aa5,
	0x0000287a,
	0xffff61e6,
	0xfff755b1,
	0x00018653,
	0xfff91ac7,
	0x00054f26,
	0x000889a7,
	0xfffbe1af,
	0x00006dfa,
	0x0009097d,
	0xffea5f4b,
	0xfff48c46,
	0x001944f6,
	0x000ac592,
	0xfffff158,
	0xffd048f1,
	0x00138c53,
	0x000a27da,
	0x000a9baf,
	0x00016597,
	0x0012f60d,
	0xfff8b2c7,
	0xfffd5bbd,
	0x0013b219,
	0x0000ca90,
	0xfff9e72f,
	0xfff08014,
	0xfffb3c82,
	0x00353ffa,
	0xffe02052,
	0x00073947,
	0x0013c035,
	0xfffff469,
	0xfffee44d,
	0x00329356,
	0x000917cf,
	0xffffbef2,
	0x00090f79,
	0xffee2b00,
	0x000f53c5,
	0xffffef80,
	0x0015825e,
	0x0023543f,
	0x00306504,
	0xffe264c5,
	0x00230016,
	0xffffea17,
	0x003245b6,
	0xffe0bced,
	0xffca711d,
	0xffc5b214,
	0x0001b207,
	0xfff8058f,
	0xfff146f4,
	0x0030440f,
	0xffc98a34,
	0x00046116,
	0x0002e787,
	0xffdec3a8,
	0x002f3fe7,
	0xffe19998,
	0x002d783a,
	0x001d0b3d,
	0xfffe7ba5,
	0xfffff3c6,
	0xffff46d6,
	0xffff91f4,
	0xfffc4861,
	0x000c9a0a,
	0xffdceb0e,
	0x00145e97,
	0x0029e1c7,
	0xffffa7eb,
	0x002e1d60,
	0xfff2935b,
	0xfffe1913,
	0x00160ad1,
	0xffef5c82,
	0xffff59d9,
	0xffaf43dc,
	0xffd3f15f,
	0x0003a739,
	0x00116808,
	0x00010a1f,
	0xffed78b4,
	0x00040033,
	0x000260de,
	0x000171fc,
	0x00056bb6,
	0x00179fc5,
	0xffedfa1d,
	0x00014a14,
	0x0011cd23,
	0xffdf33d4,
	0xffec9732,
	0xffedb1d0,
	0x000051ed,
	0xffff64fc,
	0x003566ce,
	0xfff8e570,
	0x0015cf23,
	0x0001d01c,
	0xfffefe6c,
	0x00130b70,
	0xffffa385,
	0x00172abf,
	0xfffde2b8,
	0x00399037,
	0xffa31f78,
	0x000a8128,
	0xfffef996,
	0xffe8e4d0,
	0x0002c98c,
	0xffc16ea2,
	0xfff787a5,
	0x00016b53,
	0x0002d8cf,
	0x000b96b5,
	0x002eee1d,
	0xffe743b1,
	0xfffa1a0c,
	0x0003b0ae,
	0x0022b7e1,
	0x002eab38,
	0xffe84ec4,
	0xffeeab90,
	0xffc2a9a9,
	0xffe83c85,
	0xffffe98a,
	0x00002f4f,
	0xffe997e7,
	0x000b19d6,
	0xfff42a43,
	0x00429275,
	0xffe513ef,
	0x0013be62,
	0x00004119,
	0x00171062,
	0x005052f4,
	0xffe38b04,
	0x0067ade1,
	0x000aa198,
	0x00010e01,
	0x0041f15a,
	0xffefe3e0,
	0x0023afa7,
	0x0000fc16,
	0xffff7415,
	0xffdf791d,
	0xfff75ed0,
	0xfff5d2f9,
	0xffe04526,
	0x0019486a,
	0xfff4242e,
	0xfff346f8,
	0xffefc989,
	0x00278b7c,
	0x004349d8,
	0xffe45d75,
	0xffe9671a,
	0xffffcc76,
	0x00006682,
	0x001b6993,
	0xfffb087e,
	0x0009b024,
	0xffe1bf66,
	0x000c1fa4,
	0xfffa3dc3,
	0x000040a0,
	0x000531b6,
	0xffe7b5b0,
	0x001c074b,
	0xffcd5648,
	0xfffde9b1,
	0xffff41e3,
	0xffd0066b,
	0x0004997b,
	0xffdff9a5,
	0x000245c7,
	0x000054cb,
	0x0003da14,
	0x0007810e,
	0x00189501,
	0xfff86903,
	0xfff80f2d,
	0x0005be78,
	0x0008f354,
	0x0017d3dd,
	0xfffd4154,
	0xffdd5b74,
	0xfffd8478,
	0xfffd7f3b,
	0x000030ff,
	0x0000f850,
	0x00243044,
	0xffefc799,
	0x00130a6d,
	0x00055833,
	0x00037b6f,
	0x0002fe31,
	0x00004f12,
	0x000fcef6,
	0xfff49409,
	0x002715bf,
	0xffc51975,
	0x0007cdeb,
	0x00006a26,
	0xffec4f6a,
	0xfffc2291,
	0xffd56ed1,
	0xffe76218,
	0xfffe9b9e,
	0x000a95ea,
	0x0002dc01,
	0x0020b1e6,
	0x0004ee08,
	0xfff4f71f,
	0x001030fb,
	0x000189ae,
	0x001ffbfc,
	0xffebe54c,
	0xfff2e059,
	0x00204ca3,
	0xfffe7ca1,
	0x00006304,
	0xfffedee6,
	0x000bfc24,
	0xffda89a2,
	0x00222ad7,
	0x001ec099,
	0x000a2253,
	0x00027b09,
	0xffffbe28,
	0x001fc51d,
	0xffeb21ea,
	0x000ef572,
	0xffcd823e,
	0xfffe3d1f,
	0x00008665,
	0xffe61b29,
	0xfffdb0a9,
	0xffeed210,
	0xffe4d1cb,
	0x0000eec0,
	0x00072c0c,
	0x0010bff6,
	0x0008dfc5,
	0x00198d52,
	0xffef5ff6,
	0x00103825,
	0xffe0e8fc,
	0x00086c8e,
	0x0000601b,
	0x0001c23d,
	0x000191c4,
	0xffeef593,
	0xffffee54,
	0x0000c196,
	0x0002649a,
	0x0002d4b2,
	0xfffd558f,
	0xffffade6,
	0x00027854,
	0x0002edbb,
	0x00004720,
	0xfffdd6a3,
	0x00004238,
	0x0001f660,
	0x0012adf0,
	0x0005620e,
	0x00001df3,
	0x000b79fd,
	0xffff3709,
	0xfffe8d3f,
	0xfffe6ae8,
	0xffff2cb1,
	0x00027873,
	0xfffa88a5,
	0x00031f2e,
	0xfffdd34a,
	0x0003912c,
	0x00007294,
	0xfffd5385,
	0x000311cb,
	0x00019387,
	0x000353ff,
	0x0005805b,
	0x00073ba5,
	0x00000e2d,
	0xffffc2f2,
	0x00250179,
	0xfffb35f7,
	0x00089e26,
	0x000162c3,
	0xfffd24cd,
	0xffff2226,
	0xffffc9db,
	0x00080011,
	0x0001a57f,
	0x00271ae4,
	0xffcb359e,
	0x00058a69,
	0x000140e7,
	0xfff7037a,
	0x000449d7,
	0xffd5b9d0,
	0xfff8bd0b,
	0xfffed870,
	0x0004e4b2,
	0x0003ff32,
	0x0020d083,
	0xffefbded,
	0xfffb82ef,
	0x0001f09e,
	0x0007c913,
	0x00212287,
	0xfff7b43c,
	0xfff7a5e9,
	0x0000ef27,
	0xfff7c636,
	0xffffc83f,
	0xffff3860,
	0xfffd68f7,
	0x0004be96,
	0x00023700,
	0xfffbc506,
	0xfffc7358,
	0x000334a4,
	0xffffc7a4,
	0x00098cf6,
	0xffff603f,
	0xfffd9e90,
	0xffea639c,
	0xfffd5564,
	0xffffe381,
	0xfff3fe83,
	0x00067935,
	0x0001ddb3,
	0xfff6cebe,
	0x0000f977,
	0x000201a9,
	0xfffcc3d9,
	0xfffd09f6,
	0x0003575e,
	0xffff5882,
	0x0004a8b9,
	0xfffcf417,
	0xfffd0fd1,
	0xffff5bb2,
	0x00032a60,
	0xfff8374c,
	0x00030969,
	0xffffe6c3,
	0x00000eec,
	0x0028fc2e,
	0x000fa3d1,
	0xffb7f6a9,
	0xfff4894e,
	0xffe56703,
	0xfffff225,
	0x0000114f,
	0x0021b9e8,
	0x000225f0,
	0x0029ea9b,
	0x00292c78,
	0x003fa627,
	0x00004bd4,
	0xffcfc518,
	0x00049f2a,
	0xffd4df68,
	0xffa5cead,
	0xffffbe1d,
	0x0068e03e,
	0x00656cf3,
	0x0026d1cc,
	0xffe92010,
	0xff92ab94,
	0xffc0a303,
	0xffff5502,
	0x002726f3,
	0xffcfc4e4,
	0xffa3c5ad,
	0xfff340b4,
	0xffbd5432,
	0x000004b6,
	0x0025f23a,
	0x0031b135,
	0x0004cb8a,
	0xfffec6b1,
	0x0036103f,
	0x00001a54,
	0xfffff114,
	0xffd70405,
	0xfff05c2a,
	0x00480944,
	0x000b76a2,
	0x001a98ff,
	0x00000de7,
	0xffffeeb1,
	0xffde461c,
	0xfffdda2d,
	0xffd61599,
	0xffd6d391,
	0xffc059ee,
	0xffffb42c,
	0x00303ad6,
	0xfffb60ce,
	0x002b2065,
	0x005a3132,
	0x000041e3,
	0xff971fe3,
	0xff9a932b,
	0xffd92e63,
	0x0016dfc5,
	0x006d544d,
	0x003f5ceb,
	0x0000ab0f,
	0xffd8d93d,
	0x00303b11,
	0x005c3a32,
	0x000cbf38,
	0x0042abbf,
	0xfffffb4a,
	0xffda0def,
	0xffce4efd,
	0xfffb347d,
	0x00013950,
	0xffc9effc,
	0xffffe5ac,
	0x00006177,
	0x00005050,
	0x000035fd,
	0xffffac17,
	0x0002b4be,
	0xfffe6e79,
	0xffffe557,
	0xfffe83c6,
	0x0005166f,
	0x0001f1f9,
	0xffff3872,
	0x0001ed4e,
	0x00039837,
	0xfffe3956,
	0x00014d97,
	0xfffe5a5e,
	0x00006e74,
	0x0002a441,
	0xffffc34e,
	0x00010b21,
	0x00ae7812,
	0x0001da4a,
	0xfffffc04,
	0x0000af53,
	0xffea1305,
	0xfffeaa87,
	0x0000fe3c,
	0xfffe67c7,
	0x00005cae,
	0x00000d65,
	0x00002136,
	0xffffb280,
	0x0005df91,
	0x0000923e,
	0xfffecaa8,
	0x00008f5b,
	0x004b6994,
	0x000174c2,
	0xffffea18,
	0x0001a321,
	0x00029e08,
	0xfffe62e4,
	0xffffdffa,
	0xfffe754a,
	0xfffc8633,
	0x0001944d,
	0xfffebd5f,
	0x00024f05,
	0x0009506c,
	0x0001b94f,
	0xfffec902,
	0x00012469,
	0x00001ef1,
	0xffffb19c,
	0x000000d8,
	0xffffb095,
	0xfffc475b,
	0x00021d9e,
	0x00009daf,
	0x0001767d,
	0x00179ec3,
	0x00015c5e,
	0xfffece52,
	0x000170e7,
	0xfffd16a4,
	0x0001aa07,
	0x00001677,
	0x000183ff,
	0xfffdb3c8,
	0x00009be6,
	0x00013403,
	0x0000c664,
	0xffffd798,
	0xffffc67b,
	0xfffff983,
	0x000011f9,
	0x00043343,
	0xffff6663,
	0xfffec5a1,
	0xffff3450,
	0xffffdd29,
	0xfffefc9b,
	0xfffe89a1,
	0xffff3393,
	0x0003e84f,
	0xfffe85c2,
	0xffffe0b0,
	0xfffea6e3,
	0x000c6f18,
	0xfffff2aa,
	0x0001d55b,
	0xfffe63cf,
	0xfffd5bb8,
	0x0000f1fa,
	0x0001725d,
	0x0000b605,
	0x0000537a,
	0xfffe7cca,
	0x00017bf4,
	0xfffeb8ae,
	0xfffd619a,
	0xfffe3e19,
	0x0000db4f,
	0xffff4779,
	0x0004500d,
	0xfffe8b30,
	0xffffe5ef,
	0xfffea81e,
	0xffedd808,
	0x0001324a,
	0x0000fbef,
	0x00000a60,
	0xfffc4c1c,
	0x0001fc59,
	0x0000d91d,
	0x00016d50,
	0x001f46b7,
	0x00000d38,
	0x000015f9,
	0x00010a6a,
	0xfffde3e4,
	0x00001532,
	0x000181cf,
	0xffffb629,
	0x0000110f,
	0x00004194,
	0xffffe642,
	0x00004095,
};
